<unk>	0
<s>	0
</s>	0
00	-0
าร	-1
อง	-2
ี่	-3
ระ	-4
ที่	-5
ํา	-6
่า	-7
การ	-8
▁เ	-9
▁00	-10
ใน	-11
ัน	-12
้า	-13
็น	-14
แล	-15
ป็น	-16
่อ	-17
ีย	-18
ับ	-19
่ง	-20
าย	-21
าก	-22
และ	-23
าม	-24
▁*	-25
ด้	-26
▁(	-27
ของ	-28
หม	-29
ั้	-30
เป็น	-31
ัง	-32
มี	-33
ัก	-34
ือ	-35
าน	-36
ร์	-37
▁0000	-38
ประ	-39
ได้	-40
คร	-41
รา	-42
ิน	-43
▁0	-44
▁พ	-45
ื่อ	-46
ู่	-47
ริ	-48
าง	-49
อย	-50
▁และ	-51
''	-52
่น	-53
มา	-54
หน	-55
้น	-56
หล	-57
ั้ง	-58
ว่า	-59
จาก	-60
เร	-61
วิ	-62
▁ส	-63
ัด	-64
ให	-65
่ว	-66
ภา	-67
รร	-68
โด	-69
เก	-70
เม	-71
ติ	-72
▁ค	-73
อก	-74
เท	-75
เล	-76
เด	-77
พระ	-78
ู้	-79
ตร	-80
อน	-81
โดย	-82
▁แ	-83
คว	-84
ทย	-85
ชา	-86
กล	-87
เข	-88
กับ	-89
อร์	-90
ึ่ง	-91
ิด	-92
ให้	-93
เพ	-94
▁อ	-95
จะ	-96
ัว	-97
ปี	-98
่าง	-99
รั	-100
่อง	-101
ความ	-102
ไม	-103
รับ	-104
ไป	-105
ี้	-106
วด	-107
าล	-108
▁ก	-109
ัย	-110
นา	-111
ผู้	-112
ึง	-113
an	-114
er	-115
in	-116
เส	-117
▁ใน	-118
▁หม	-119
้อง	-120
▁เป็น	-121
ั้น	-122
าส	-123
วย	-124
เจ	-125
ทาง	-126
ราช	-127
▁จ	-128
▁น	-129
วัน	-130
หมู่	-131
▁ต	-132
ลง	-133
อา	-134
on	-135
วง	-136
ทํา	-137
ุด	-138
วดหมู่	-139
▁หมวดหมู่	-140
▁ซ	-141
อบ	-142
ทร	-143
ียน	-144
โร	-145
ิง	-146
ไม่	-147
▁t	-148
ูก	-149
่ม	-150
เว	-151
ื่อง	-152
กร	-153
กัน	-154
ต่	-155
คม	-156
▁''	-157
อยู่	-158
สม	-159
ใช	-160
นี้	-161
เช	-162
ภาพ	-163
▁s	-164
้าน	-165
ย์	-166
ิก	-167
เน	-168
หร	-169
้อ	-170
คล	-171
▁โดย	-172
ษา	-173
เทศ	-174
▁ม	-175
ลา	-176
ใช้	-177
รรม	-178
หา	-179
้าง	-180
ar	-181
ชน	-182
ดี	-183
ึก	-184
ตัว	-185
ิต	-186
าว	-187
บุ	-188
ตร์	-189
en	-190
นัก	-191
ด้วย	-192
▁c	-193
เป	-194
ไทย	-195
▁มี	-196
ือง	-197
ียง	-198
ต่อ	-199
บบ	-200
ประเทศ	-201
or	-202
หรือ	-203
อล	-204
ออก	-205
ถึง	-206
ขึ	-207
ขึ้น	-208
▁ซึ่ง	-209
ิส	-210
▁-	-211
วน	-212
al	-213
ตั้ง	-214
โล	-215
คน	-216
งาน	-217
รี	-218
ัญ	-219
รก	-220
วัด	-221
ิล	-222
he	-223
รัฐ	-224
เซ	-225
ห่ง	-226
▁"	-227
ทั้ง	-228
ณะ	-229
ค์	-230
ี่ย	-231
at	-232
้ํา	-233
▁เม	-234
วิทย	-235
▁m	-236
เอ	-237
▁ร	-238
วั	-239
นั้น	-240
ศาส	-241
าร์	-242
ิม	-243
ณ์	-244
ธิ	-245
อย่าง	-246
เจ้า	-247
ทั	-248
ชื่อ	-249
es	-250
่วน	-251
ที่ส	-252
จํา	-253
ุม	-254
เต	-255
ต์	-256
บริ	-257
0000	-258
ดง	-259
ีก	-260
เบ	-261
หาร	-262
▁โ	-263
เมือง	-264
แห่ง	-265
ครั้ง	-266
▁b	-267
แส	-268
อด	-269
▁p	-270
▁ที่	-271
มาก	-272
เรียน	-273
กระ	-274
ส์	-275
่าย	-276
สร	-277
ปร	-278
ุน	-279
ยัง	-280
แก	-281
is	-282
ที	-283
ถูก	-284
ดับ	-285
้ว	-286
ได้รับ	-287
็จ	-288
สํา	-289
▁ช	-290
ก็	-291
พิ	-292
็ก	-293
กา	-294
แบบ	-295
สิ	-296
นิ	-297
สาม	-298
▁#	-299
วันที่	-300
▁o	-301
ักษ	-302
▁000	-303
น์	-304
หนึ่ง	-305
▁:	-306
▁**	-307
ผล	-308
▁a	-309
ศึก	-310
▁ป	-311
▁d	-312
หลัง	-313
ic	-314
▁แต่	-315
เข้า	-316
ยา	-317
ละ	-318
▁เพ	-319
ัต	-320
it	-321
เมื่อ	-322
บัน	-323
ชาว	-324
โรง	-325
▁การ	-326
มน	-327
ชี	-328
▁บ	-329
▁พระ	-330
ดิ	-331
ันธ	-332
อม	-333
ุก	-334
องค์	-335
▁f	-336
ารถ	-337
ศาสตร์	-338
000	-339
ปล	-340
้าย	-341
หน้า	-342
เห	-343
▁ไ	-344
ยน	-345
วม	-346
สถ	-347
le	-348
ือน	-349
▁หรือ	-350
re	-351
ียว	-352
ชาติ	-353
แต่	-354
สู	-355
ตาม	-356
่าน	-357
ro	-358
▁ด	-359
มิ	-360
แรก	-361
▁ได้	-362
ส่วน	-363
ุ่น	-364
ใจ	-365
เพื่อ	-366
่อน	-367
แสดง	-368
พล	-369
▁w	-370
ต่าง	-371
จัก	-372
ังห	-373
ตะ	-374
กรรม	-375
าะ	-376
ายน	-377
กว่า	-378
จุ	-379
ใหญ	-380
ด์	-381
แข	-382
แล้ว	-383
าท	-384
เคร	-385
เภ	-386
ช่ว	-387
▁ล	-388
เกิด	-389
ศึกษา	-390
ัล	-391
จัด	-392
▁the	-393
ัม	-394
ขา	-395
ังหวัด	-396
ตรี	-397
สี	-398
าลัย	-399
เค	-400
ธรรม	-401
ุ่ม	-402
▁ท	-403
ต้	-404
เรื่อง	-405
ion	-406
เพลง	-407
สน	-408
กํา	-409
่วม	-410
วิทยาลัย	-411
ุง	-412
ใหญ่	-413
ในการ	-414
บท	-415
ที่มี	-416
สุ	-417
ตํา	-418
ังก	-419
แม	-420
สร้าง	-421
บล	-422
เขา	-423
เรีย	-424
คือ	-425
โลก	-426
ว่าง	-427
ทําให้	-428
ื่น	-429
▁of	-430
am	-431
โอ	-432
ตุ	-433
เหล	-434
ต้อง	-435
แน	-436
▁เมื่อ	-437
ฤษ	-438
▁0000)	-439
รู	-440
▁g	-441
ื้อ	-442
เย	-443
ูล	-444
▁l	-445
น้ํา	-446
รม	-447
ยุ	-448
ทรง	-449
พันธ	-450
เศ	-451
as	-452
ื้น	-453
สามารถ	-454
▁ปี	-455
ในปี	-456
▁ๆ	-457
ญา	-458
วรร	-459
ตก	-460
us	-461
0000)	-462
พร	-463
โรงเรียน	-464
▁n	-465
ต้น	-466
ล์	-467
ดา	-468
ําร	-469
้อม	-470
and	-471
คํา	-472
ัจ	-473
มหา	-474
ีน	-475
โม	-476
▁h	-477
อีก	-478
สา	-479
ิจ	-480
โน	-481
นํา	-482
แท	-483
เธ	-484
อุ	-485
ing	-486
หว่าง	-487
▁()	-488
่าว	-489
▁ประ	-490
จักร	-491
ใหม	-492
ฐาน	-493
ือก	-494
ยนตร์	-495
้อย	-496
ol	-497
ภาพยนตร์	-498
บั	-499
ชาย	-500
el	-501
ใต้	-502
un	-503
หลาย	-504
ทธ	-505
วี	-506
อัน	-507
หมาย	-508
สง	-509
▁จาก	-510
เฉ	-511
วา	-512
บาล	-513
ใหม่	-514
ระหว่าง	-515
ภาษา	-516
พรร	-517
ําเภ	-518
ed	-519
il	-520
ศ์	-521
▁ข	-522
ดน	-523
ดิน	-524
กุ	-525
าศ	-526
ัส	-527
ทธิ	-528
เด็จ	-529
เดียว	-530
หัว	-531
▁คือ	-532
สุด	-533
ัจจุ	-534
ห์	-535
ัจจุบัน	-536
วิต	-537
ac	-538
▁ของ	-539
กลุ่ม	-540
ริ่ม	-541
ราย	-542
ภู	-543
▁เช	-544
▁(0000)	-545
สาร	-546
้ง	-547
พระราช	-548
ภาค	-549
เตอร์	-550
โก	-551
ยก	-552
ด้าน	-553
พื้น	-554
ณา	-555
รัก	-556
หรับ	-557
สมา	-558
มีการ	-559
th	-560
แข่ง	-561
จน	-562
ไว	-563
ูน	-564
บน	-565
ซี	-566
นวน	-567
ท์	-568
เครื่อง	-569
วงศ์	-570
ที่สุด	-571
คุ	-572
หลัก	-573
พบ	-574
แก่	-575
ซึ่ง	-576
ur	-577
รูป	-578
ชม	-579
บอล	-580
ไฟ	-581
เมริ	-582
ดู	-583
ทีม	-584
หญ	-585
จึง	-586
ชีวิต	-587
สถาน	-588
บ้าน	-589
อยู่ใน	-590
,000	-591
ภาย	-592
กลาง	-593
ยม	-594
ขัน	-595
▁ผู้	-596
เปล	-597
สห	-598
▁คน	-599
ปก	-600
ชิก	-601
ากาศ	-602
ตน	-603
เล่น	-604
สูง	-605
▁in	-606
รู้	-607
เด็จพระ	-608
ี่ยว	-609
ตะวัน	-610
กอบ	-611
ติด	-612
อเมริ	-613
ว์	-614
เสียง	-615
อส	-616
บาง	-617
▁เจ	-618
ครอง	-619
หญิง	-620
om	-621
คณะ	-622
ิศ	-623
จังหวัด	-624
เธอ	-625
um	-626
ch	-627
คคล	-628
อื่น	-629
ณฑ	-630
วก	-631
แข่งขัน	-632
เหน	-633
บุคคล	-634
ุต	-635
มห	-636
ั่ง	-637
ยะ	-638
สอง	-639
ช่วง	-640
ลักษ	-641
ี่ยน	-642
ําเภอ	-643
▁k	-644
แผ	-645
ศิล	-646
อากาศ	-647
แพ	-648
นาด	-649
ศิลป	-650
พั	-651
ราง	-652
id	-653
วิทยา	-654
เลือก	-655
ent	-656
▁เข	-657
ธี	-658
รวม	-659
▁เช่น	-660
▁เพื่อ	-661
เอง	-662
ซ์	-663
แทน	-664
▁v	-665
เทพ	-666
ั่น	-667
et	-668
อะ	-669
หลวง	-670
ร่วม	-671
ชนะ	-672
ศรี	-673
แต	-674
▁ห	-675
ig	-676
เวลา	-677
เริ่ม	-678
หลังจาก	-679
โต	-680
▁r	-681
ฟ้า	-682
ไว้	-683
▁–	-684
▁นัก	-685
▁ย	-686
ปฏ	-687
้อน	-688
มาณ	-689
ชิ	-690
วัล	-691
เหนือ	-692
อิน	-693
ตอน	-694
st	-695
จาร	-696
ตา	-697
กล่าว	-698
สมาชิก	-699
▁j	-700
ิว	-701
็ม	-702
หน่ง	-703
▁เก	-704
สาย	-705
ังกฤษ	-706
เสีย	-707
เง	-708
เปลี่ยน	-709
ฟุต	-710
ระดับ	-711
ัท	-712
แหน่ง	-713
ิ่ง	-714
เอก	-715
นาย	-716
ที่จะ	-717
้ม	-718
คา	-719
▁เด	-720
ลูก	-721
มัน	-722
ละคร	-723
▁ธ	-724
ืน	-725
คาร	-726
โทร	-727
im	-728
รง	-729
ขนาด	-730
ร้อง	-731
่อย	-732
เล็ก	-733
เขต	-734
ad	-735
ระบบ	-736
กี	-737
สัง	-738
พัฒ	-739
สมัย	-740
รณ์	-741
▁ในปี	-742
กลับ	-743
อังกฤษ	-744
หมด	-745
ประกอบ	-746
ราะ	-747
▁e	-748
ส่ง	-749
ทะ	-750
ทั่ว	-751
ดัง	-752
พุ	-753
ลํา	-754
▁เร	-755
นด์	-756
รถ	-757
จํานวน	-758
ทัศ	-759
ชั้น	-760
ตําแหน่ง	-761
▁and	-762
ได้รับการ	-763
ลาย	-764
้าร	-765
ก่อ	-766
ผ่าน	-767
มาจาก	-768
ยาย	-769
ธาน	-770
รางวัล	-771
ทุก	-772
ป์	-773
ั้ม	-774
สมเด็จพระ	-775
ี่ป	-776
▁สม	-777
ฟุตบอล	-778
จิ	-779
ag	-780
ญี่ป	-781
ญี่ปุ่น	-782
รส	-783
▁จึง	-784
บาท	-785
▁คว	-786
กอง	-787
ทอง	-788
วิชา	-789
เห็น	-790
.00	-791
ิร์	-792
โย	-793
ปฏิ	-794
ลัง	-795
กิจ	-796
ปัจจุบัน	-797
ดํา	-798
ไม้	-799
▁ส่วน	-800
บัติ	-801
เขียน	-802
▁ต่อ	-803
▁ไฟ	-804
ช่วย	-805
บริษ	-806
ประชา	-807
โซ	-808
อัล	-809
นน	-810
เหตุ	-811
เช่น	-812
iv	-813
มีความ	-814
.0	-815
คัญ	-816
ประเทศไทย	-817
ir	-818
มหาวิทยาลัย	-819
จีน	-820
พันธ์	-821
กรุง	-822
ริง	-823
เหม	-824
บรร	-825
ศัก	-826
นคร	-827
ภูมิ	-828
แป	-829
ation	-830
ทัศน์	-831
คริส	-832
็บ	-833
สําหรับ	-834
บริษัท	-835
ul	-836
เดือน	-837
▁เน	-838
ชนิด	-839
▁จังหวัด	-840
เปิด	-841
เกี่ยว	-842
สิน	-843
▁ว	-844
▁ณ	-845
นาม	-846
▁เอ	-847
็ด	-848
▁st	-849
▁จะ	-850
▁สา	-851
แบ	-852
ประจํา	-853
หนัง	-854
เซีย	-855
เพียง	-856
▁รับ	-857
▁แม	-858
▁ถ	-859
อิ	-860
คราม	-861
▁อา	-862
▁ch	-863
โค	-864
ตี	-865
คุณ	-866
ฝ่าย	-867
▁ไฟล์	-868
ผลิต	-869
ทหาร	-870
▁ซึ่งเป็น	-871
ริญ	-872
พุทธ	-873
บั้ม	-874
อิส	-875
ทร์	-876
สัน	-877
ากร	-878
ประมาณ	-879
เดิน	-880
▁ความ	-881
เดิม	-882
กาศ	-883
ut	-884
โคร	-885
ช่อง	-886
▁ฮ	-887
ia	-888
นาง	-889
แต่ง	-890
บุรี	-891
▁ประเทศ	-892
สะ	-893
ไร	-894
กรม	-895
โบ	-896
สิ่ง	-897
วจ	-898
ุษ	-899
ตําบล	-900
เท่า	-901
เกล	-902
ก่อน	-903
ดาว	-904
ายุ	-905
em	-906
โปร	-907
▁เท	-908
กุล	-909
เกม	-910
ter	-911
เงิน	-912
ไม่มี	-913
อกจาก	-914
พื้นที่	-915
▁จน	-916
บิน	-917
เวณ	-918
สัญ	-919
ียม	-920
พระองค์	-921
▁ตํา	-922
ชมป์	-923
แลนด์	-924
▁เจ้า	-925
นาน	-926
ที่เป็น	-927
▁สํา	-928
อาจ	-929
ay	-930
ัตว์	-931
ทั้งหมด	-932
▁“	-933
โท	-934
ดิ์	-935
พ์	-936
-00	-937
มนตรี	-938
พาะ	-939
การณ์	-940
ot	-941
วาง	-942
บู	-943
ิ่ม	-944
ีย์	-945
บริเวณ	-946
พัฒนา	-947
ap	-948
ื่องจาก	-949
อเมริกา	-950
็ง	-951
ชัย	-952
▁รวม	-953
เฟ	-954
เมื่อวันที่	-955
สัม	-956
สิทธิ	-957
▁มหา	-958
▁ฟ	-959
่วย	-960
มือ	-961
ทาน	-962
ทัพ	-963
▁ทําให้	-964
แรง	-965
อํา	-966
pg	-967
ฬา	-968
ตั้งแต่	-969
เผ	-970
โทรทัศน์	-971
▁ศ	-972
คิด	-973
สาว	-974
แนว	-975
▁รับบท	-976
รายการ	-977
เฉพาะ	-978
โจ	-979
สงคราม	-980
jpg	-981
os	-982
-0	-983
วัฒ	-984
เรือ	-985
),	-986
ชุด	-987
จริง	-988
▁นาย	-989
ct	-990
สู่	-991
พรรค	-992
เพิ่ม	-993
ษฐ	-994
อาณา	-995
▁ตั้ง	-996
ครั้งแรก	-997
ลักษณะ	-998
ถือ	-999
ี่ยม	-1000
ยอด	-1001
ุ์	-1002
บา	-1003
อนุ	-1004
คู่	-1005
ปราก	-1006
พิม	-1007
เชื่อ	-1008
สภา	-1009
แค	-1010
ยู	-1011
ตรง	-1012
เป็นที่	-1013
อฟ	-1014
วัติ	-1015
การศึกษา	-1016
▁หลังจาก	-1017
รั่ง	-1018
อันดับ	-1019
ิ่น	-1020
ตะวันออก	-1021
▁ก็	-1022
ค่า	-1023
ดีต	-1024
แชมป์	-1025
เศษ	-1026
กําลัง	-1027
▁มิ	-1028
ฝรั่ง	-1029
ี้ย	-1030
▁นอกจาก	-1031
ers	-1032
จากการ	-1033
▁วัด	-1034
▁re	-1035
▁ต่อมา	-1036
เนื้อ	-1037
▁to	-1038
สหรัฐ	-1039
เร็จ	-1040
มุ	-1041
ปรากฏ	-1042
▁y	-1043
แม่	-1044
ครั้งที่	-1045
น้อย	-1046
มาร	-1047
วัง	-1048
▁วิ	-1049
ยาว	-1050
▁มา	-1051
เนิน	-1052
ณี	-1053
ประช	-1054
บริหาร	-1055
▁จํา	-1056
ท้าย	-1057
ื่อน	-1058
ียบ	-1059
ปกครอง	-1060
the	-1061
▁อําเภอ	-1062
ทางการ	-1063
ใบ	-1064
เป็นผู้	-1065
สือ	-1066
▁,	-1067
ไล	-1068
▁ตําบล	-1069
เคย	-1070
ซา	-1071
ตัด	-1072
ียร	-1073
สําคัญ	-1074
รอบ	-1075
สัตว์	-1076
พวก	-1077
แดง	-1078
▁เล	-1079
ุธ	-1080
od	-1081
วล	-1082
ธาร	-1083
รัช	-1084
สถา	-1085
บรม	-1086
ไม่ได้	-1087
ฝรั่งเศ	-1088
ประส	-1089
ip	-1090
เส้น	-1091
อัลบั้ม	-1092
ผลง	-1093
ชิง	-1094
ทํางาน	-1095
กรา	-1096
ผลงาน	-1097
คง	-1098
เมตร	-1099
ฝรั่งเศส	-1100
อาหาร	-1101
นาคม	-1102
วะ	-1103
▁มหาวิทยาลัย	-1104
พิมพ์	-1105
est	-1106
▁เขา	-1107
ขณะ	-1108
พู	-1109
นิยม	-1110
ค้า	-1111
เรียก	-1112
กีฬา	-1113
พลัง	-1114
รัฐมนตรี	-1115
▁เกิด	-1116
px	-1117
ภรณ์	-1118
วรรษ	-1119
จุด	-1120
ทรวง	-1121
ารา	-1122
แผ่น	-1123
ภายใน	-1124
พันธุ์	-1125
ดนตรี	-1126
เดียวกัน	-1127
หนังสือ	-1128
▁โรงเรียน	-1129
ต่างๆ	-1130
้าม	-1131
ข้าง	-1132
ศักดิ์	-1133
ชัน	-1134
้าว	-1135
เคล	-1136
รุ	-1137
ตรา	-1138
ูนย์	-1139
ตู	-1140
ประกาศ	-1141
▁สุ	-1142
บัญ	-1143
▁เซ	-1144
ดูก	-1145
อาณาจักร	-1146
op	-1147
ลอง	-1148
▁ทาง	-1149
▁เพลง	-1150
▁เส	-1151
ไข	-1152
ว่าเป็น	-1153
บดี	-1154
▁;	-1155
สําเร็จ	-1156
จะมี	-1157
โครง	-1158
▁ให้	-1159
กรณ์	-1160
ov	-1161
▁ทั้ง	-1162
ทั่วไป	-1163
ข้อ	-1164
ไซ	-1165
ริยา	-1166
นี	-1167
สิ้น	-1168
ครอบ	-1169
อต	-1170
ียร์	-1171
ak	-1172
บุคคลจาก	-1173
รัฐบาล	-1174
ลิ	-1175
▁สถ	-1176
เหมือน	-1177
▁กัน	-1178
▁ตัว	-1179
ยุค	-1180
จารย์	-1181
สอน	-1182
ราว	-1183
▁สิง	-1184
รอง	-1185
่อม	-1186
ปรา	-1187
รุ่น	-1188
▁ปัจจุบัน	-1189
ันธ์	-1190
ังกัด	-1191
▁กับ	-1192
ce	-1193
หน้าที่	-1194
▁(0	-1195
รัส	-1196
▁โดยมี	-1197
ผิด	-1198
ทะเล	-1199
อี	-1200
การแข่งขัน	-1201
ab	-1202
กล้	-1203
เกาะ	-1204
เลข	-1205
ระยะ	-1206
แดน	-1207
กาล	-1208
กรรมการ	-1209
ian	-1210
igh	-1211
ริม	-1212
ามารถ	-1213
กัด	-1214
เกี่ยวกับ	-1215
แห่งชาติ	-1216
ตะวันตก	-1217
โรค	-1218
เลือกตั้ง	-1219
ภาษ	-1220
ยาน	-1221
ลาด	-1222
คริสต์	-1223
เกล้า	-1224
เฮ	-1225
บุญ	-1226
ฎา	-1227
ตัน	-1228
ow	-1229
▁เว	-1230
ภั	-1231
้อมูล	-1232
ากล	-1233
อร	-1234
แปลง	-1235
ป่า	-1236
บุตร	-1237
หย	-1238
หนึ่งใน	-1239
ิดา	-1240
▁แห่ง	-1241
อําเภอ	-1242
พิเศษ	-1243
ชาวไทย	-1244
ท่า	-1245
ดําเนิน	-1246
▁สาขา	-1247
พระเจ้า	-1248
ลาคม	-1249
▁ถึง	-1250
วร	-1251
โมสร	-1252
เด็ก	-1253
เตร	-1254
ist	-1255
ard	-1256
จะเป็น	-1257
บี	-1258
ใด	-1259
พา	-1260
ันวา	-1261
ซิ	-1262
เชีย	-1263
ลอด	-1264
สํานัก	-1265
่วง	-1266
ษฎ	-1267
แตก	-1268
ษ์	-1269
▁ตุ	-1270
ยาม	-1271
ang	-1272
▁ตาม	-1273
ักษ์	-1274
จิก	-1275
ปัญ	-1276
▁ด้วย	-1277
av	-1278
▁ออก	-1279
หาคม	-1280
สู้	-1281
จัน	-1282
หนด	-1283
ต่อมา	-1284
oc	-1285
▁ไม่	-1286
ันวาคม	-1287
ศาสนา	-1288
แยก	-1289
กลาย	-1290
โป	-1291
ถ่าย	-1292
เกษ	-1293
คะ	-1294
▁0,000	-1295
เข้าร	-1296
กาย	-1297
กะ	-1298
เหลือ	-1299
ษายน	-1300
ภาคม	-1301
▁th	-1302
ยายน	-1303
ฎาคม	-1304
ชีพ	-1305
ประวัติ	-1306
ทําการ	-1307
หนัก	-1308
เรียกว่า	-1309
สุข	-1310
ess	-1311
-0000	-1312
เภท	-1313
วิทยาศาสตร์	-1314
มนุษ	-1315
ขาย	-1316
ุล	-1317
all	-1318
วิน	-1319
ฤษภาคม	-1320
ข้อมูล	-1321
ภัย	-1322
มะ	-1323
ที่ย	-1324
วรรณ	-1325
ie	-1326
ปลา	-1327
นักแสดง	-1328
อยู่ที่	-1329
ใกล้	-1330
ราษฎ	-1331
นาจ	-1332
▁เพราะ	-1333
ในช่วง	-1334
การ์	-1335
แมน	-1336
ou	-1337
ทิศ	-1338
กราคม	-1339
่น้ํา	-1340
ภาพันธ์	-1341
ปลาย	-1342
มั	-1343
ุมภาพันธ์	-1344
ฉาย	-1345
▁พระองค์	-1346
กิ	-1347
ชอบ	-1348
อายุ	-1349
คุม	-1350
ลี	-1351
▁กระ	-1352
ท้อง	-1353
ขน	-1354
art	-1355
สังคม	-1356
หว	-1357
▁เนื่องจาก	-1358
▁de	-1359
ลักษณ์	-1360
ร่าง	-1361
เชื้อ	-1362
เอา	-1363
ัพ	-1364
ถุน	-1365
็อก	-1366
แบ่ง	-1367
คอม	-1368
ักษร	-1369
ยี	-1370
รักษา	-1371
เหล่า	-1372
ine	-1373
เวอร์	-1374
og	-1375
ไต	-1376
ครู	-1377
ไอ	-1378
ทิ	-1379
จัดการ	-1380
เวล	-1381
หน่วย	-1382
สุดท้าย	-1383
เป็นการ	-1384
มัก	-1385
ฤศ	-1386
จัย	-1387
มวย	-1388
ํารง	-1389
ให้กับ	-1390
if	-1391
เดินทาง	-1392
จิกายน	-1393
ียญ	-1394
แพทย	-1395
แฟ	-1396
ถุนายน	-1397
ฤศจิกายน	-1398
บับ	-1399
เร็	-1400
จอม	-1401
ซู	-1402
ตาย	-1403
ปฏิบัติ	-1404
ือด	-1405
บาย	-1406
มาย	-1407
▁มีนาคม	-1408
เดีย	-1409
กฎ	-1410
▁สิงหาคม	-1411
ที่ใช้	-1412
อเมริกัน	-1413
▁ตุลาคม	-1414
▁วัน	-1415
ธารณ	-1416
ight	-1417
ินี	-1418
ปิด	-1419
เศร	-1420
▁ro	-1421
.)	-1422
ูป	-1423
ของเขา	-1424
▁ได้แก่	-1425
ในประเทศ	-1426
คโน	-1427
กระทรวง	-1428
แนน	-1429
สถานี	-1430
▁เคร	-1431
บาทสมเด็จพระ	-1432
ฉบับ	-1433
ไฟฟ้า	-1434
๊ก	-1435
▁กรก	-1436
ํารวจ	-1437
ปา	-1438
ยิ่ง	-1439
เวีย	-1440
ษัต	-1441
โช	-1442
และการ	-1443
ภิ	-1444
ใส	-1445
▁ธันวาคม	-1446
ขาว	-1447
ติน	-1448
เสน	-1449
▁กรกฎาคม	-1450
ษัตริ	-1451
คโนโล	-1452
ั่ว	-1453
▁เมือง	-1454
ณฑ์	-1455
▁ดัง	-1456
▁นอกจากนี้	-1457
าระ	-1458
มนุษย์	-1459
ถนน	-1460
sh	-1461
umb	-1462
อร์ด	-1463
ราชวงศ์	-1464
ษัตริย์	-1465
ศิลปิน	-1466
ประธาน	-1467
ิป	-1468
▁เมษายน	-1469
เซอร์	-1470
▁อัน	-1471
รูปแบบ	-1472
จับ	-1473
▁อย่าง	-1474
ห้อง	-1475
▁ใช้	-1476
ศิ	-1477
หน่าย	-1478
เนีย	-1479
ดังกล่าว	-1480
▁กร	-1481
ศูนย์	-1482
ารี	-1483
ord	-1484
คโนโลยี	-1485
แผน	-1486
ปรับ	-1487
เปอร์	-1488
▁กันยายน	-1489
แอน	-1490
ร้าง	-1491
วรรษที่	-1492
▁เค	-1493
ร้อน	-1494
ของการ	-1495
ทรั	-1496
▁ช่อง	-1497
ill	-1498
▁กิ	-1499
▁พฤษภาคม	-1500
ถิ่น	-1501
แหล	-1502
▁คณะ	-1503
กําหนด	-1504
ี้ยง	-1505
จิต	-1506
ับสน	-1507
▁กุมภาพันธ์	-1508
▁is	-1509
ปาก	-1510
ป้อง	-1511
▁00.00	-1512
็อ	-1513
ชร	-1514
หรียญ	-1515
บวน	-1516
หลี	-1517
านคร	-1518
คล้าย	-1519
กรุงเทพ	-1520
ฐานะ	-1521
อํานาจ	-1522
เกิดขึ้น	-1523
บริการ	-1524
เร็ว	-1525
เชียง	-1526
..	-1527
ยังมี	-1528
ell	-1529
▁มกราคม	-1530
ธิการ	-1531
ประชาชน	-1532
วิธี	-1533
ศต	-1534
▁และเป็น	-1535
แผ่นดิน	-1536
สูตร	-1537
จําหน่าย	-1538
ฤดู	-1539
แต่ละ	-1540
พย์	-1541
มง	-1542
▁เธ	-1543
พิธี	-1544
สโมสร	-1545
▁on	-1546
สอบ	-1547
ant	-1548
วัต	-1549
เซล	-1550
ณฑิต	-1551
▁/	-1552
▁)	-1553
คอน	-1554
สกุล	-1555
็ต	-1556
ควบ	-1557
ียรติ	-1558
เกิล	-1559
มากกว่า	-1560
อาคาร	-1561
▁และมี	-1562
ra	-1563
▁ก่อน	-1564
▁สําหรับ	-1565
ิช	-1566
รู้จัก	-1567
พยา	-1568
ด็จ	-1569
ไปยัง	-1570
สหรัฐอเมริกา	-1571
พร้อม	-1572
ลีก	-1573
▁แล้ว	-1574
qu	-1575
ราชอาณาจักร	-1576
▁พฤศจิกายน	-1577
▁ทรง	-1578
เก่า	-1579
▁มิถุนายน	-1580
แสง	-1581
อาร์	-1582
ติดต่อ	-1583
แม่น้ํา	-1584
พรรดิ	-1585
เสียชีวิต	-1586
ธุ	-1587
▁for	-1588
ญาณ	-1589
แพร	-1590
ธา	-1591
หาย	-1592
นต์	-1593
โรป	-1594
เทคโนโลยี	-1595
ity	-1596
ก่อตั้ง	-1597
ริยาภรณ์	-1598
พี	-1599
ัคร	-1600
ชุม	-1601
แซ	-1602
เติ	-1603
สิทธิ์	-1604
โพ	-1605
ข่าว	-1606
ทุ	-1607
▁เมื่อวันที่	-1608
โอล	-1609
ัป	-1610
อุป	-1611
▁เครื่อง	-1612
ลิง	-1613
▁un	-1614
ปกติ	-1615
อิสริยาภรณ์	-1616
เกา	-1617
▁ชื่อ	-1618
วัฒน	-1619
เลือด	-1620
▁เป็นต้น	-1621
up	-1622
สนาม	-1623
พ่อ	-1624
โลเมตร	-1625
แจ	-1626
เต็ม	-1627
บัณฑิต	-1628
เยี่ยม	-1629
ร้อย	-1630
▁พร	-1631
ศาล	-1632
สวน	-1633
บัง	-1634
▁(00	-1635
ออกมา	-1636
เพราะ	-1637
ับสนุน	-1638
กลายเป็น	-1639
▁เมตร	-1640
เลี้ยง	-1641
ออส	-1642
ub	-1643
เอ็ม	-1644
แข็ง	-1645
เชิง	-1646
ต้องการ	-1647
นม	-1648
▁ผ	-1649
ว่าการ	-1650
มหานคร	-1651
:00	-1652
ค้น	-1653
ไท	-1654
ออกจาก	-1655
พย	-1656
เอส	-1657
กว	-1658
านี	-1659
ตระ	-1660
าช	-1661
ูง	-1662
ท่าน	-1663
ศัย	-1664
เกียรติ	-1665
ศตวรรษที่	-1666
บอก	-1667
ราชอิสริยาภรณ์	-1668
เลิศ	-1669
เดอร์	-1670
se	-1671
ผู้แทน	-1672
อาว	-1673
ชั่น	-1674
วัย	-1675
ลด	-1676
เก็บ	-1677
ธยม	-1678
▁0.0	-1679
▁นิ	-1680
ประเภท	-1681
ืบ	-1682
ดํารง	-1683
ย้าย	-1684
▁ล้าน	-1685
ซิง	-1686
ราษฎร	-1687
รกิจ	-1688
พยาบาล	-1689
อดีต	-1690
▁i	-1691
ud	-1692
ราชการ	-1693
พอ	-1694
เศรษฐ	-1695
ประวัติศาสตร์	-1696
วิจัย	-1697
เท่านั้น	-1698
พง	-1699
กูล	-1700
ัติ	-1701
กระจ	-1702
จร	-1703
ตลอด	-1704
หนึ่งของ	-1705
แถ	-1706
กองทัพ	-1707
านุ	-1708
เจน	-1709
สังกัด	-1710
ามี	-1711
▁และได้	-1712
ในวันที่	-1713
▁จัด	-1714
เข้ามา	-1715
ควบคุม	-1716
ธิบดี	-1717
เจริญ	-1718
พี่	-1719
ทั่ง	-1720
เลีย	-1721
ราบ	-1722
กับการ	-1723
ยนต์	-1724
ต่อสู้	-1725
ออกอากาศ	-1726
ok	-1727
▁เริ่ม	-1728
▁sh	-1729
เกาหลี	-1730
▁*''	-1731
อักษร	-1732
ธิป	-1733
thumb	-1734
▁ระหว่าง	-1735
พูด	-1736
▁ชั้น	-1737
ิมป	-1738
อยู่หัว	-1739
สัมพันธ์	-1740
เคลื่อน	-1741
เอเชีย	-1742
หิน	-1743
ต่อไป	-1744
ยุโรป	-1745
าะห์	-1746
สื่อ	-1747
จบ	-1748
ith	-1749
ธง	-1750
▁0)	-1751
ri	-1752
อาศัย	-1753
'')	-1754
าลี	-1755
ฝึก	-1756
ได	-1757
▁ราย	-1758
ิญ	-1759
ประสบ	-1760
ขอ	-1761
เจ้าอยู่หัว	-1762
▁ne	-1763
▁se	-1764
นะ	-1765
อีกครั้ง	-1766
▁อัล	-1767
เด่น	-1768
การเมือง	-1769
ทด	-1770
ริญญา	-1771
สถาป	-1772
อุด	-1773
▁0.	-1774
ตาร์	-1775
เคราะห์	-1776
ชื่อว่า	-1777
ยอม	-1778
ระเบ	-1779
▁al	-1780
▁ได้รับ	-1781
คะแนน	-1782
แตกต่าง	-1783
▁กรุง	-1784
▁00,000	-1785
องค์การ	-1786
ผู้เล่น	-1787
จี	-1788
-000	-1789
ราณ	-1790
ริน	-1791
ธุรกิจ	-1792
▁อีก	-1793
สด	-1794
ทุน	-1795
▁รับบทเป็น	-1796
ฝั่ง	-1797
สาธารณ	-1798
ที่ไม่	-1799
เลย	-1800
ดอก	-1801
▁ตอน	-1802
เฉล	-1803
ลําดับ	-1804
เกิน	-1805
ดวง	-1806
พัน	-1807
ครัว	-1808
ป้องกัน	-1809
ที่น	-1810
หนอง	-1811
แพทย์	-1812
พาน	-1813
สนับสนุน	-1814
กฎหมาย	-1815
อื่นๆ	-1816
▁ar	-1817
แพร่	-1818
ดูกาล	-1819
ให้เป็น	-1820
ฤดูกาล	-1821
▁คํา	-1822
▁0000,	-1823
▁เบ	-1824
นายก	-1825
เกษตร	-1826
ิมปิก	-1827
ของประเทศ	-1828
ber	-1829
ที่สอง	-1830
▁0000.	-1831
ปริ	-1832
ตรวจ	-1833
นก	-1834
มอง	-1835
ph	-1836
โครงการ	-1837
สรร	-1838
มัธยม	-1839
ืช	-1840
ong	-1841
ียด	-1842
สั่ง	-1843
▁สามารถ	-1844
ไน	-1845
เสริม	-1846
สูงสุด	-1847
จนถึง	-1848
ึด	-1849
อ่อน	-1850
สี่	-1851
▁le	-1852
ทึก	-1853
รบ	-1854
▁สมเด็จพระ	-1855
▁pro	-1856
โอก	-1857
พัก	-1858
ne	-1859
▁he	-1860
โบราณ	-1861
ตัดสิน	-1862
คืน	-1863
▁แม้	-1864
ขนาดใหญ่	-1865
เข้าร่วม	-1866
ก่อสร้าง	-1867
▁พล	-1868
ของพระ	-1869
▁te	-1870
ai	-1871
▁เธอ	-1872
เสนอ	-1873
แก้ว	-1874
ภายใต้	-1875
ทั้งสอง	-1876
น้อง	-1877
กระทั่ง	-1878
กิน	-1879
เพื่อน	-1880
มอ	-1881
วิล	-1882
▁เขต	-1883
สล	-1884
ผู้แทนราษฎร	-1885
ทู	-1886
เวท	-1887
เฉียง	-1888
ae	-1889
▁ในการ	-1890
▁หมาย	-1891
สาขา	-1892
สาห	-1893
รัง	-1894
ทธิ์	-1895
คัด	-1896
วัฒนธรรม	-1897
รถไฟ	-1898
จิตร	-1899
ขับ	-1900
ive	-1901
ทัน	-1902
▁อุ	-1903
โอลิมปิก	-1904
▁บริษัท	-1905
'',	-1906
ที่ถูก	-1907
▁con	-1908
ภัณฑ์	-1909
ตอบ	-1910
ัช	-1911
ยุทธ	-1912
ก็ได้	-1913
สิง	-1914
▁pr	-1915
ม์	-1916
amp	-1917
เชื่อม	-1918
คลุม	-1919
ชื่อเสียง	-1920
อาชีพ	-1921
จน์	-1922
ack	-1923
ate	-1924
เที่ย	-1925
man	-1926
▁กํา	-1927
ตนเอง	-1928
รก็	-1929
▁ยัง	-1930
พระราชทาน	-1931
▁กรม	-1932
นิว	-1933
แห	-1934
นอก	-1935
ศว	-1936
ทวี	-1937
ผสม	-1938
ธานี	-1939
ตัวเอง	-1940
จา	-1941
วิหาร	-1942
มาน	-1943
อาร	-1944
บันทึก	-1945
คดี	-1946
ติก	-1947
จันทร์	-1948
ขยาย	-1949
ัฐ	-1950
ิร์ต	-1951
สภาผู้แทนราษฎร	-1952
ดอน	-1953
แอ	-1954
ออกแบบ	-1955
พฤ	-1956
ที่สุดใน	-1957
▁นา	-1958
ศิลปะ	-1959
▁สี	-1960
ภายหลัง	-1961
นักร้อง	-1962
สภาพ	-1963
ู้น	-1964
▁ยู	-1965
งาม	-1966
ส่วนใหญ่	-1967
แย	-1968
▁พระเจ้า	-1969
ปัญหา	-1970
เข้าไป	-1971
ge	-1972
ain	-1973
▁sp	-1974
พืช	-1975
รัต	-1976
ศา	-1977
สวรร	-1978
▁ขณะ	-1979
▁as	-1980
ik	-1981
เหตุการณ์	-1982
ที่สํา	-1983
▁อดีต	-1984
เอล	-1985
ich	-1986
โกะ	-1987
วัตถ	-1988
▁วันที่	-1989
▁มีการ	-1990
ราชา	-1991
ิตย์	-1992
โอรส	-1993
หลักสูตร	-1994
นท์	-1995
ีบ	-1996
วาย	-1997
ยายาม	-1998
ไรก็	-1999
สืบ	-2000
our	-2001
ศึกษ	-2002
ปริญญา	-2003
ขึ้นมา	-2004
▁จํานวน	-2005
te	-2006
ล่า	-2007
ชนะเลิศ	-2008
▁จากนั้น	-2009
พระชน	-2010
กว้าง	-2011
ใส่	-2012
ต่ํา	-2013
สถาบัน	-2014
ซิงเกิล	-2015
พระพุทธ	-2016
เปลี่ยนแปลง	-2017
ยอดเยี่ยม	-2018
หัวหน้า	-2019
ran	-2020
ม่า	-2021
คต	-2022
อยุธ	-2023
▁จํากัด	-2024
ทับ	-2025
▁com	-2026
แก้	-2027
ก์	-2028
▁พระราช	-2029
▁คุ	-2030
ริก	-2031
ช้าง	-2032
มิน	-2033
แปล	-2034
ในประเทศไทย	-2035
็ค	-2036
เสด็จ	-2037
ทีวี	-2038
ที่ได้	-2039
ประชากร	-2040
การปกครอง	-2041
ข้าม	-2042
▁กลุ่ม	-2043
นู	-2044
ฟิล	-2045
▁0-0	-2046
คับ	-2047
ish	-2048
บูรณ์	-2049
ยศ	-2050
จักรพรรดิ	-2051
▁รางวัล	-2052
กลับมา	-2053
ธรรมชาติ	-2054
▁สห	-2055
ตระกูล	-2056
we	-2057
้วย	-2058
เดียวกับ	-2059
▁พิ	-2060
เนิด	-2061
▁ถูก	-2062
ราม	-2063
▁เรื่อง	-2064
ขุน	-2065
เบอร์	-2066
▁รัฐ	-2067
▁(0000	-2068
บรมราช	-2069
▁::	-2070
▁ไป	-2071
ตํารวจ	-2072
เนื่อง	-2073
ast	-2074
เชิญ	-2075
ข้อง	-2076
ร้าย	-2077
สากล	-2078
โอกาส	-2079
ชาร์	-2080
▁&	-2081
บวนการ	-2082
นิก	-2083
อินเดีย	-2084
▁บาง	-2085
▁น้ํา	-2086
เปน	-2087
▁ซี	-2088
ทีมชาติ	-2089
เนื่องจาก	-2090
พยายาม	-2091
มวล	-2092
ทัย	-2093
ตูน	-2094
▁an	-2095
ประโย	-2096
...	-2097
อยุธยา	-2098
หาก	-2099
นับ	-2100
ภาพยนตร์เรื่อง	-2101
มร	-2102
ort	-2103
▁กิโลเมตร	-2104
▁be	-2105
ประตู	-2106
▁พรร	-2107
ประชาธิป	-2108
end	-2109
ัตร	-2110
อาการ	-2111
ry	-2112
▁(''	-2113
ออกไป	-2114
ณฑล	-2115
▁รวมทั้ง	-2116
ุย	-2117
ครอบครัว	-2118
กํากับ	-2119
ทรัพย์	-2120
บทบาท	-2121
แพ้	-2122
▁นํา	-2123
จัดตั้ง	-2124
ซิล	-2125
รัตน	-2126
นวย	-2127
ล้อม	-2128
ทา	-2129
อุต	-2130
โฮ	-2131
ประชุม	-2132
▁โร	-2133
ที่เกิด	-2134
เหรียญ	-2135
โตะ	-2136
อิต	-2137
ภาษาอังกฤษ	-2138
▁ในช่วง	-2139
ธาตุ	-2140
วิชาการ	-2141
โรงพยาบาล	-2142
ี่ยง	-2143
อัต	-2144
ชัด	-2145
แหล่ง	-2146
จํานวนมาก	-2147
▁cl	-2148
▁มีความ	-2149
ริย	-2150
ต้าน	-2151
แม้	-2152
▁ครั้ง	-2153
็อง	-2154
▁และการ	-2155
▁กอง	-2156
▁พร้อม	-2157
▁ทํา	-2158
คลอง	-2159
▁ห้อง	-2160
ไฮ	-2161
ชน์	-2162
▁สํานัก	-2163
ยึด	-2164
▁ผล	-2165
กําเนิด	-2166
ตลาด	-2167
ค่าย	-2168
จู	-2169
▁ประกอบ	-2170
und	-2171
ังก์	-2172
ด้วยการ	-2173
สถานที่	-2174
พระบาทสมเด็จพระ	-2175
ตาล	-2176
เผย	-2177
สมบัติ	-2178
ยังคง	-2179
สาน	-2180
มิตร	-2181
ขาด	-2182
คณะกรรมการ	-2183
▁z	-2184
เรา	-2185
โจม	-2186
▁เดือน	-2187
▁(;	-2188
ปล่อย	-2189
สเตอร์	-2190
ld	-2191
ดูแล	-2192
▁หลัง	-2193
คนที่	-2194
เกี่ยวข้อง	-2195
ชาวอเมริกัน	-2196
าลง	-2197
ขั้น	-2198
ฤษฎ	-2199
เบิล	-2200
ออสเตร	-2201
่ํา	-2202
มนี	-2203
สึก	-2204
สั้น	-2205
เพศ	-2206
▁ทีม	-2207
ดินแดน	-2208
พลังงาน	-2209
ass	-2210
เพชร	-2211
ิติ	-2212
▁โอ	-2213
▁งาน	-2214
รัสเซีย	-2215
ดัน	-2216
ue	-2217
▁***	-2218
ที่มีความ	-2219
ธิดา	-2220
เหล็ก	-2221
กุฎ	-2222
▁ภาพ	-2223
▁อิน	-2224
ทน	-2225
รัชกาล	-2226
โปรด	-2227
แกรม	-2228
ดํารงตําแหน่ง	-2229
ไหว	-2230
ืด	-2231
เหล่านี้	-2232
นักเรียน	-2233
ใคร	-2234
วบ	-2235
แร	-2236
หัวใจ	-2237
เถ	-2238
ly	-2239
ary	-2240
อํานวย	-2241
ที่สําคัญ	-2242
อรมนี	-2243
วัตถุ	-2244
เทอร์	-2245
▁สาย	-2246
ies	-2247
ของผู้	-2248
ลึก	-2249
ดาห์	-2250
เที่ยว	-2251
เดอะ	-2252
▁บ้าน	-2253
ไหล	-2254
มาเป็น	-2255
ผู้น	-2256
บัญญ	-2257
▁จัก	-2258
uc	-2259
ob	-2260
รัม	-2261
▁เข้า	-2262
หมายถึง	-2263
▁ภาษา	-2264
เมื่อปี	-2265
สต์	-2266
ทําลาย	-2267
แฮ	-2268
▁0000–	-2269
ดีโอ	-2270
ซึ	-2271
ทวีป	-2272
▁เป็นผู้	-2273
มหาส	-2274
▁ลํา	-2275
เยอ	-2276
ิค	-2277
เกอร์	-2278
รมัน	-2279
ไม่สามารถ	-2280
ติดต่อกับ	-2281
วาด	-2282
ได้เป็น	-2283
▁กล	-2284
ผน	-2285
หัส	-2286
เชียงใหม่	-2287
สมัคร	-2288
ชู	-2289
แรกของ	-2290
ซาน	-2291
มหาก	-2292
▁ตั้งแต่	-2293
ial	-2294
▁ไม	-2295
เปร	-2296
ฟอร์	-2297
▁wor	-2298
▁อย่างไรก็	-2299
จะต้อง	-2300
อาท	-2301
▁ลูก	-2302
คอ	-2303
เศรษฐกิจ	-2304
อห์	-2305
ความสําเร็จ	-2306
ตัวละคร	-2307
▁แก	-2308
้วน	-2309
ความเป็น	-2310
เรือน	-2311
คริสต์ศตวรรษที่	-2312
ace	-2313
ประกอบด้วย	-2314
ในปัจจุบัน	-2315
▁ซึ่งมี	-2316
สมาคม	-2317
มาตร	-2318
ยิง	-2319
พิว	-2320
ออน	-2321
iz	-2322
ลิน	-2323
ความรู้	-2324
io	-2325
ens	-2326
ure	-2327
เลย์	-2328
วิทยุ	-2329
พิธ	-2330
ib	-2331
ุฒ	-2332
ชก	-2333
คี	-2334
แต่งตั้ง	-2335
สาหกรรม	-2336
หมายเลข	-2337
ัค	-2338
คําว่า	-2339
ปรุง	-2340
บัญญัติ	-2341
จิน	-2342
คู	-2343
▁คร	-2344
ขณะที่	-2345
ทบ	-2346
rom	-2347
▁with	-2348
ust	-2349
าร์ก	-2350
ควร	-2351
ไปด้วย	-2352
าราง	-2353
ทุ่ง	-2354
สึ	-2355
าด	-2356
อุดม	-2357
พิวเตอร์	-2358
▁นาง	-2359
ug	-2360
เรน	-2361
มากขึ้น	-2362
ัปดาห์	-2363
เทียบ	-2364
สิก	-2365
▁ในวันที่	-2366
▁แส	-2367
อว	-2368
อาวุธ	-2369
ประโยชน์	-2370
พาก	-2371
▁สมา	-2372
อาทิตย์	-2373
เกล้าเจ้าอยู่หัว	-2374
าธิบดี	-2375
ระบุ	-2376
เครือ	-2377
▁0000-0000	-2378
ทางด้าน	-2379
▁รวมถึง	-2380
ฉัน	-2381
▁000,000	-2382
าชาติ	-2383
▁ยก	-2384
▁ด้าน	-2385
▁by	-2386
กุม	-2387
ด้วยกัน	-2388
พระยา	-2389
อีกด้วย	-2390
▁หมายถึง	-2391
ขนาดเล็ก	-2392
ใช่	-2393
อาจารย์	-2394
ไตย	-2395
ซึ่งเป็น	-2396
าบ	-2397
ผ้า	-2398
อิตาลี	-2399
พิษ	-2400
รอย	-2401
▁ชาว	-2402
เกต	-2403
|000	-2404
นี้เป็น	-2405
สุน	-2406
กระจาย	-2407
คาร์	-2408
ย่อย	-2409
ในสมัย	-2410
เหลือง	-2411
▁x	-2412
ื้อง	-2413
เบล	-2414
▁เวลา	-2415
ขัด	-2416
▁ทิศ	-2417
การใช้	-2418
▁จักร	-2419
▁at	-2420
ต่างประเทศ	-2421
คณ	-2422
ory	-2423
นาคาร	-2424
กลง	-2425
ชั่ว	-2426
ปืน	-2427
ล่าง	-2428
องค์กร	-2429
ปะ	-2430
▁แพ	-2431
▁รุ่น	-2432
ประก	-2433
ลับ	-2434
ปิ	-2435
สํานักงาน	-2436
▁สร้าง	-2437
อย่างมาก	-2438
▁ภาค	-2439
ช์	-2440
เธอร์	-2441
ิกส์	-2442
ว่าจะ	-2443
ท้องถิ่น	-2444
าก็	-2445
▁0,	-2446
▁ร่วม	-2447
เดน	-2448
ร่วมกับ	-2449
เจอร์	-2450
นําไป	-2451
▁กรุงเทพ	-2452
ฉาก	-2453
นัด	-2454
เทศบาล	-2455
▁พบ	-2456
สมรส	-2457
บังคับ	-2458
▁ดังนั้น	-2459
ัพท์	-2460
มูล	-2461
เซลล์	-2462
ของเธอ	-2463
▁โดยเฉพาะ	-2464
ah	-2465
สิบ	-2466
oh	-2467
พม่า	-2468
ดําเนินการ	-2469
โจมตี	-2470
ฬาลง	-2471
เข้าสู่	-2472
มอบ	-2473
ภาวะ	-2474
เยอรมัน	-2475
ver	-2476
uk	-2477
▁ถ้า	-2478
เคียง	-2479
ธร	-2480
นว	-2481
▁อี	-2482
เยอรมนี	-2483
เอ็น	-2484
▁ที่มี	-2485
ขว	-2486
วรรดิ	-2487
ide	-2488
ช่วยเหลือ	-2489
ชิงแชมป์	-2490
จะถูก	-2491
คอมพิวเตอร์	-2492
อยู่กับ	-2493
ซุ	-2494
็อค	-2495
ศัพท์	-2496
สัญลักษณ์	-2497
▁เฮ	-2498
▁แสดง	-2499
ไช	-2500
มหากษัตริย์	-2501
aw	-2502
ational	-2503
วิร์	-2504
บัญชา	-2505
เดช	-2506
จง	-2507
ดนาม	-2508
▁mar	-2509
เป็นทางการ	-2510
สมาชิกเครื่อง	-2511
เขียว	-2512
สาท	-2513
ัมภ	-2514
ff	-2515
อห์น	-2516
บาด	-2517
▁แบ	-2518
ชิ้น	-2519
เซ็น	-2520
▁สถานี	-2521
เอฟ	-2522
หุ	-2523
นายกรัฐมนตรี	-2524
▁ชนะ	-2525
ยกรรม	-2526
▁champ	-2527
ยืน	-2528
ซ้าย	-2529
ในระดับ	-2530
▁แต่ก็	-2531
แกน	-2532
โรมัน	-2533
▁หล	-2534
การ์ตูน	-2535
ซะ	-2536
เริ่มต้น	-2537
ship	-2538
ครอบคลุม	-2539
อุตสาหกรรม	-2540
นํามา	-2541
ระเบิด	-2542
ล้าน	-2543
ทธิพล	-2544
สงค์	-2545
ผิว	-2546
ทศ	-2547
one	-2548
ฆ่า	-2549
เจ็บ	-2550
เลอร์	-2551
นานาชาติ	-2552
ond	-2553
เชื้อสาย	-2554
▁รูป	-2555
พิจาร	-2556
กรุงเทพมหานคร	-2557
ุทร	-2558
ในเดือน	-2559
มากมาย	-2560
เรียง	-2561
วงการ	-2562
▁ครั้งที่	-2563
สาธารณรัฐ	-2564
▁champion	-2565
▁bo	-2566
ประพันธ์	-2567
เฉลิม	-2568
▁ขึ้น	-2569
bn	-2570
สนใจ	-2571
โทษ	-2572
ศพ	-2573
แฟน	-2574
นิส	-2575
▁or	-2576
อ้าง	-2577
ที่อยู่	-2578
▁หมู่	-2579
จุล	-2580
▁tr	-2581
มากที่สุด	-2582
pr	-2583
ฤดูร้อน	-2584
สมบูรณ์	-2585
มัธยมศึกษา	-2586
เทน	-2587
ลู	-2588
มั่น	-2589
▁รัก	-2590
▁สิ	-2591
ประกวด	-2592
▁tim	-2593
ตะวันออกเฉียง	-2594
และมี	-2595
ที่ได้รับ	-2596
▁me	-2597
ว่าการกระทรวง	-2598
เยาว	-2599
น่า	-2600
ชีว	-2601
ดร	-2602
▁sc	-2603
▁รอง	-2604
ward	-2605
คิ	-2606
หนี	-2607
ง่าย	-2608
ยาก	-2609
เหลี่ยม	-2610
pe	-2611
▁ถนน	-2612
เลิก	-2613
ามา	-2614
ไพ	-2615
การแสดง	-2616
hy	-2617
per	-2618
▁คุณ	-2619
ลม	-2620
▁pl	-2621
แน่น	-2622
ซื้อ	-2623
ให้น	-2624
ind	-2625
ical	-2626
แท้	-2627
แห่งประเทศไทย	-2628
ment	-2629
tern	-2630
โฟ	-2631
ฆ์	-2632
ivers	-2633
เส้นทาง	-2634
รัชกาลที่	-2635
ออกเป็น	-2636
▁สถา	-2637
▁เรีย	-2638
▁00-00	-2639
ร่างกาย	-2640
โมง	-2641
▁หลังจากนั้น	-2642
ฬาลงกรณ์	-2643
▁ว่า	-2644
กรณี	-2645
มุม	-2646
กลม	-2647
ทอด	-2648
ove	-2649
▁แต	-2650
ภูมิภาค	-2651
ิตย	-2652
ใช้เป็น	-2653
กง	-2654
ore	-2655
▁ดี	-2656
▁=	-2657
รุน	-2658
เซน	-2659
▁no	-2660
กระดูก	-2661
หาง	-2662
▁ex	-2663
ยุก	-2664
ัตยกรรม	-2665
▁ท่าน	-2666
▁อยู่	-2667
eng	-2668
ษก	-2669
ประสงค์	-2670
วอล	-2671
▁ed	-2672
นิท	-2673
โข	-2674
หอ	-2675
เมะ	-2676
ไกล	-2677
▁อาร์	-2678
เวิร์	-2679
▁co	-2680
ไก	-2681
สเปน	-2682
ข้าว	-2683
อากาศยาน	-2684
วุฒ	-2685
เติม	-2686
วิศว	-2687
ได้แก่	-2688
แว	-2689
เล่า	-2690
เอียด	-2691
เสมอ	-2692
บัตร	-2693
อํานวยการ	-2694
เพลิง	-2695
▁อําเภ	-2696
▁bl	-2697
็กซ์	-2698
อฟริ	-2699
ที่ตั้ง	-2700
แถบ	-2701
▁สังกัด	-2702
▁นักแสดง	-2703
▁อัลบั้ม	-2704
และความ	-2705
เสร	-2706
▁โปร	-2707
บก	-2708
▁วง	-2709
bo	-2710
โนะ	-2711
▁อาจ	-2712
▁อย่างไรก็ตาม	-2713
▁ดร	-2714
สก	-2715
แพง	-2716
age	-2717
▁ภ	-2718
หะ	-2719
วิดีโอ	-2720
ปีที่	-2721
แคว	-2722
โดยการ	-2723
ท่อง	-2724
▁เดอะ	-2725
พรรณ	-2726
ซิส	-2727
ฤษฎี	-2728
▁นับ	-2729
แวด	-2730
▁new	-2731
นูญ	-2732
อิทธิพล	-2733
▁เปิด	-2734
ประดิ	-2735
▁world	-2736
ิตยสาร	-2737
อนา	-2738
▁อิ	-2739
az	-2740
แสดงโดย	-2741
ละเอียด	-2742
บัล	-2743
หยุด	-2744
สโมสรฟุตบอล	-2745
าราม	-2746
▁col	-2747
เลย์บอล	-2748
▁เกิดเมื่อวันที่	-2749
เนอร์	-2750
บางส่วน	-2751
ป่วย	-2752
เสร็จ	-2753
▁จนกระทั่ง	-2754
▁อะ	-2755
▁เคย	-2756
▁br	-2757
โคล	-2758
▁am	-2759
เลน	-2760
ลอ	-2761
พื้นฐาน	-2762
ิร์น	-2763
จักรวรรดิ	-2764
เคมี	-2765
ite	-2766
ทั่วโลก	-2767
่าร	-2768
ินส์	-2769
รุนแรง	-2770
เบียน	-2771
ธรรมนูญ	-2772
แก่น	-2773
▁championship	-2774
นี้มี	-2775
ile	-2776
ซาก	-2777
▁ศรี	-2778
ูด	-2779
กรี	-2780
ทิน	-2781
ธน	-2782
na	-2783
เดี่ยว	-2784
ศี	-2785
ผู้นํา	-2786
▁หาก	-2787
สัญญา	-2788
▁และยัง	-2789
ฟ์	-2790
ุส	-2791
เป็นพระ	-2792
order	-2793
▁—	-2794
วงศ์เธอ	-2795
มณฑล	-2796
พิจารณา	-2797
cl	-2798
ลาว	-2799
ที่พบ	-2800
▁เป็นการ	-2801
ทราบ	-2802
จด	-2803
เหมาะ	-2804
ฟู	-2805
คลื่น	-2806
ชุมชน	-2807
▁เห	-2808
มอน	-2809
ัวร์	-2810
หนุ่ม	-2811
เวียดนาม	-2812
หลาก	-2813
สมุทร	-2814
สหราชอาณาจักร	-2815
พวกเขา	-2816
ไบ	-2817
กระแส	-2818
ที่ดี	-2819
เข้าใจ	-2820
▁หม่อม	-2821
หลักฐาน	-2822
รัตน์	-2823
เลียน	-2824
านา	-2825
เตรียม	-2826
คัดเลือก	-2827
ที่สามารถ	-2828
▁โค	-2829
โครงสร้าง	-2830
สเต	-2831
โดยสาร	-2832
ถ้า	-2833
▁isbn	-2834
กันใน	-2835
ต่อต้าน	-2836
ไปถึง	-2837
วิก	-2838
ice	-2839
ขณะนั้น	-2840
ปล้ํา	-2841
▁เส้น	-2842
ฝน	-2843
สินค้า	-2844
▁แอน	-2845
ath	-2846
▁ประจํา	-2847
▁ได้รับการ	-2848
▁เป็นนัก	-2849
แกร	-2850
มาร์	-2851
สยาม	-2852
วัส	-2853
พระชนม์	-2854
▁บุ	-2855
▁00,	-2856
▁wh	-2857
ปฏิบัติการ	-2858
อิง	-2859
สูติ	-2860
บิดา	-2861
เรียบ	-2862
▁โคร	-2863
ลาม	-2864
-0000)	-2865
ขอบ	-2866
เย็น	-2867
ทูต	-2868
ng	-2869
ear	-2870
เอน	-2871
ณิช	-2872
▁0:00	-2873
ทราย	-2874
ขวาง	-2875
ศิลป์	-2876
ประสบความสําเร็จ	-2877
▁ไร	-2878
เจ้าหญิง	-2879
ห่าง	-2880
ert	-2881
สูญ	-2882
พงษ์	-2883
นาถ	-2884
ข่าย	-2885
ตัวอย่าง	-2886
เกร	-2887
ฮิ	-2888
กัม	-2889
พระราชินี	-2890
อธิ	-2891
ได้รับรางวัล	-2892
ศักราช	-2893
ื่อย	-2894
iss	-2895
ษฐ์	-2896
▁พวก	-2897
จําเป็น	-2898
กันว่า	-2899
ได้อย่าง	-2900
▁๒	-2901
▁ออกอากาศ	-2902
ดารา	-2903
▁เทศ	-2904
เครื่องบิน	-2905
ือบ	-2906
รีส์	-2907
ประชาธิปไตย	-2908
จํากัด	-2909
เป็นคน	-2910
▁อําเภอเมือง	-2911
ต่อเนื่อง	-2912
ครึ่ง	-2913
ทดลอง	-2914
สตรี	-2915
แวดล้อม	-2916
สระ	-2917
▁ตั้งอยู่	-2918
เช่นกัน	-2919
หาส	-2920
▁จนถึง	-2921
นอง	-2922
ให้แก่	-2923
ไข่	-2924
ฝัน	-2925
วิช	-2926
มารดา	-2927
▁บท	-2928
โฆ	-2929
pt	-2930
แอฟริ	-2931
▁ระบบ	-2932
ถม	-2933
ยอมรับ	-2934
คอย	-2935
="	-2936
คณิต	-2937
ัญญา	-2938
ปร่าง	-2939
บัว	-2940
ษฐาน	-2941
เสิร์ต	-2942
ครบ	-2943
จ่าย	-2944
โดด	-2945
ประสาท	-2946
ธิส	-2947
ครั้งนี้	-2948
ักษณะ	-2949
สวรรค์	-2950
ฤทธิ์	-2951
วย์	-2952
▁รอบ	-2953
อร์ก	-2954
ท่องเที่ยว	-2955
หม่อม	-2956
มิส	-2957
ิกา	-2958
ach	-2959
▁มัน	-2960
ction	-2961
แอล	-2962
▁ศูนย์	-2963
สัปดาห์	-2964
ศูนย์กลาง	-2965
act	-2966
▁สมัย	-2967
สีมา	-2968
อินโด	-2969
▁มัก	-2970
เหย	-2971
▁เซน	-2972
เข้ม	-2973
▁จุ	-2974
ost	-2975
ขึ้นเป็น	-2976
ญาต	-2977
ire	-2978
ของตน	-2979
ได้มีการ	-2980
▁โซ	-2981
▁univers	-2982
หวัง	-2983
ได้ใน	-2984
ห้า	-2985
อป	-2986
ประทับ	-2987
ตกลง	-2988
ung	-2989
ยุติ	-2990
pl	-2991
ช่าง	-2992
ิปป	-2993
ในฐานะ	-2994
กษัตริย์	-2995
▁ก่อ	-2996
▁ประกอบด้วย	-2997
แด	-2998
ที่สร้าง	-2999
เมีย	-3000
ชล	-3001
อย่างเป็นทางการ	-3002
มุทร	-3003
ปรับปรุง	-3004
งะ	-3005
อําเภ	-3006
สีขาว	-3007
แคล	-3008
ธ์	-3009
ในเรื่อง	-3010
▁ชุด	-3011
ไลน์	-3012
ลอน	-3013
เบีย	-3014
ให้บริการ	-3015
ขวา	-3016
โซเวีย	-3017
ern	-3018
▁หน้า	-3019
ทาย	-3020
land	-3021
รักษ์	-3022
▁รถ	-3023
▁ศิ	-3024
วาน	-3025
เทียม	-3026
▁โม	-3027
มาตรฐาน	-3028
สภ	-3029
อล์	-3030
อุปกรณ์	-3031
▁นั้น	-3032
ยาง	-3033
กิจการ	-3034
ail	-3035
ร้าน	-3036
ภาพยนตร์ที่	-3037
ปราสาท	-3038
เวน	-3039
องค์การบริหาร	-3040
▁ติดต่อกับ	-3041
▁พระองค์เจ้า	-3042
มัง	-3043
ศาสตรา	-3044
ไม่น	-3045
สีน้ํา	-3046
▁ในเดือน	-3047
ix	-3048
▁ชนิด	-3049
ให้เกิด	-3050
▁award	-3051
จะได้	-3052
มี่	-3053
หลากหลาย	-3054
เกาหลีใต้	-3055
ภิเ	-3056
ละครโทรทัศน์	-3057
พระนาม	-3058
อ่าน	-3059
ี้ยว	-3060
เป็นนัก	-3061
รี่	-3062
▁เป	-3063
▁man	-3064
กระทํา	-3065
เปิดตัว	-3066
ค้นพบ	-3067
!!	-3068
อั	-3069
ปลูก	-3070
ณห	-3071
วิธีการ	-3072
ภิเษก	-3073
แค่	-3074
ence	-3075
ทางทิศ	-3076
โภ	-3077
สมอง	-3078
▁และใน	-3079
ฐม	-3080
ซ้อน	-3081
โยบาย	-3082
ถวาย	-3083
สงฆ์	-3084
คาด	-3085
โซเวียต	-3086
กษ์	-3087
ตัดสินใจ	-3088
สถาปัตยกรรม	-3089
▁wr	-3090
ประธานาธิบดี	-3091
▁00%	-3092
เมอร์	-3093
โร่	-3094
ศิริ	-3095
ขวัญ	-3096
กด	-3097
เว้น	-3098
มักจะ	-3099
ประทาน	-3100
แรม	-3101
de	-3102
มณ์	-3103
ตั้งอยู่	-3104
วัฒน์	-3105
ont	-3106
▁ไอ	-3107
หมู่บ้าน	-3108
บิ	-3109
มส์	-3110
เป็นตัว	-3111
นัน	-3112
จึงได้	-3113
็อป	-3114
ชะ	-3115
ไปใน	-3116
ทําให้เกิด	-3117
▁ph	-3118
กู	-3119
▁ต้อง	-3120
คราว	-3121
เจ้าชาย	-3122
ทางหลวง	-3123
ล้ม	-3124
ส่วนหนึ่งของ	-3125
co	-3126
นีเซีย	-3127
อัตรา	-3128
พบกับ	-3129
ไปได้	-3130
คัน	-3131
▁เฟ	-3132
เทิง	-3133
▁พระบาทสมเด็จพระ	-3134
ของพระองค์	-3135
เมน	-3136
เบิร์	-3137
▁โจ	-3138
รินทร์	-3139
ไว้ใน	-3140
ยังไม่	-3141
ชิน	-3142
▁บาท	-3143
ิตติ	-3144
พรี	-3145
ใช้งาน	-3146
วิศวกรรม	-3147
กิจกรรม	-3148
ได้รับความ	-3149
เกมส์	-3150
ยัน	-3151
ม้า	-3152
▁คา	-3153
▁ในขณะที่	-3154
▁โก	-3155
▁สมาชิก	-3156
ram	-3157
▁ประธาน	-3158
▁อาคาร	-3159
บัญชาการ	-3160
▁it	-3161
โบสถ	-3162
ก็คือ	-3163
กล่าวว่า	-3164
ใช้ใน	-3165
▁ชา	-3166
เวย์	-3167
หัน	-3168
▁แบบ	-3169
▁จิ	-3170
สีแดง	-3171
แตกต่างกัน	-3172
ศาสตราจารย์	-3173
ous	-3174
ความสามารถ	-3175
ดังนี้	-3176
สัญญาณ	-3177
▁คู่	-3178
เรื่องราว	-3179
▁สาขาวิชา	-3180
ิปปินส์	-3181
▁เหรียญ	-3182
ทิ้ง	-3183
▁0.00	-3184
ขึ้นใน	-3185
จารณ์	-3186
เป้า	-3187
วัฒนา	-3188
การค้า	-3189
ft	-3190
ษย์	-3191
อาจจะ	-3192
ling	-3193
.0000	-3194
▁สหรัฐ	-3195
เซนต์	-3196
ร้องเพลง	-3197
ปรึก	-3198
▁fl	-3199
▁รายการ	-3200
ทางการเมือง	-3201
ult	-3202
เสื้อ	-3203
▁ดิ	-3204
ย่อ	-3205
หง	-3206
▁'	-3207
▁00.0	-3208
ick	-3209
เพล	-3210
พูชา	-3211
เบื้อง	-3212
ได้ถูก	-3213
หนา	-3214
ของชาว	-3215
สิ้นสุด	-3216
ฟื้น	-3217
อู	-3218
ออสเตรเลีย	-3219
ไหม	-3220
เว็บ	-3221
กระบวนการ	-3222
▁เข้าร	-3223
com	-3224
อิสระ	-3225
เน้น	-3226
ากับ	-3227
รัฐธรรมนูญ	-3228
▁mus	-3229
เจ้าของ	-3230
▁0000:	-3231
▁เมื่อปี	-3232
สวย	-3233
ครองราช	-3234
มุข	-3235
▁เดิม	-3236
ความคิด	-3237
วาร	-3238
พฤติ	-3239
เวที	-3240
▁ไม่มี	-3241
สงครามโลก	-3242
มงคล	-3243
▁โดยใช้	-3244
son	-3245
แอร์	-3246
ash	-3247
จุลจอม	-3248
แอฟริกา	-3249
านิ	-3250
เล่ม	-3251
เกล้าฯ	-3252
อะไร	-3253
้าราช	-3254
ภพ	-3255
ทยาน	-3256
คาม	-3257
▁ตาราง	-3258
▁ลักษณะ	-3259
สหภาพ	-3260
▁ฉ	-3261
▁จากการ	-3262
▁แฟ	-3263
อลล	-3264
เสือ	-3265
วดี	-3266
▁จัน	-3267
ตัวของ	-3268
ฮา	-3269
ศาสตร	-3270
ฟา	-3271
บรา	-3272
ition	-3273
รอ	-3274
วิจารณ์	-3275
คนิค	-3276
olog	-3277
▁อาท	-3278
▁ใบ	-3279
เท้า	-3280
เกียว	-3281
▁ไทย	-3282
ถาม	-3283
สื่อสาร	-3284
ทั้งสิ้น	-3285
ood	-3286
▁ad	-3287
▁อันดับ	-3288
ฟัน	-3289
เปลี่ยนชื่อ	-3290
sp	-3291
ไซต์	-3292
ให้เห็น	-3293
ร์ก	-3294
▁ปลา	-3295
เนื้อหา	-3296
▁บน	-3297
int	-3298
ทุม	-3299
ราคา	-3300
▁ดอก	-3301
me	-3302
หาราช	-3303
พิส	-3304
▁ลิ	-3305
ินทร์	-3306
โปรแกรม	-3307
พิธภัณฑ์	-3308
ออฟ	-3309
ส่งเสริม	-3310
มีชีวิต	-3311
ประสิทธิ	-3312
เป็นสมาชิก	-3313
ประหาร	-3314
กิ่ง	-3315
▁ทุก	-3316
ไชย	-3317
▁ระดับ	-3318
กีฬาโอลิมปิก	-3319
▁00.	-3320
บูร	-3321
เลื่อน	-3322
ฮี	-3323
หลง	-3324
มงกุฎ	-3325
เมียร์	-3326
orm	-3327
มิว	-3328
ติเมตร	-3329
เพื่อให้	-3330
กล่าวถึง	-3331
รอด	-3332
การศึกษ	-3333
ที่นั่ง	-3334
ลําตัว	-3335
เหนือของ	-3336
ใต้ของ	-3337
▁สํานักงาน	-3338
ราชสีมา	-3339
สัก	-3340
นั่ง	-3341
▁ขณะที่	-3342
จ์	-3343
เคน	-3344
▁พรรค	-3345
▁from	-3346
▁you	-3347
ขนส่ง	-3348
▁ครอบคลุม	-3349
fl	-3350
▁we	-3351
ว่ามี	-3352
วาล	-3353
เพิ่มขึ้น	-3354
คําสั่ง	-3355
▁โครง	-3356
าระดับ	-3357
ect	-3358
▁ถือ	-3359
ฟัง	-3360
▁เต	-3361
br	-3362
ck	-3363
old	-3364
ซูเปอร์	-3365
หู	-3366
ุ่ง	-3367
ภาษาไทย	-3368
เข้าแข่งขัน	-3369
▁university	-3370
ซี่	-3371
สังหาร	-3372
นิตยสาร	-3373
▁จึงได้	-3374
รูปร่าง	-3375
ใกล้เคียง	-3376
ign	-3377
ทฤษฎี	-3378
แคว้น	-3379
sv	-3380
ผม	-3381
โอะ	-3382
ัตย์	-3383
▁team	-3384
▁เทศบาล	-3385
บะ	-3386
ก็จะ	-3387
ปริมาณ	-3388
อยาก	-3389
▁เกา	-3390
ั้ว	-3391
ายัง	-3392
เป็นที่รู้จัก	-3393
แปร	-3394
ณุ	-3395
ดาน	-3396
right	-3397
อริ	-3398
▁พื้น	-3399
เพาะ	-3400
กรุ	-3401
นี่	-3402
ภูเขา	-3403
ฝี	-3404
โกล	-3405
▁ชิ	-3406
เคิล	-3407
สะพาน	-3408
แสน	-3409
บํา	-3410
ไตร	-3411
ร่วมกัน	-3412
แนะ	-3413
เกี่ยวข้องกับ	-3414
หนาว	-3415
การบิน	-3416
les	-3417
บโต	-3418
มติ	-3419
▁แผ	-3420
▁โดยการ	-3421
แบน	-3422
หน่วยงาน	-3423
อธิบาย	-3424
ปฐม	-3425
ค่อน	-3426
▁love	-3427
สมเด็จ	-3428
พระนคร	-3429
สุวรรณ	-3430
ชัดเจน	-3431
▁กระทรวง	-3432
ซัน	-3433
วิส	-3434
▁บริเวณ	-3435
บาน	-3436
อิเล็ก	-3437
บิล	-3438
เป็นครั้งแรก	-3439
โอน	-3440
าร์ด	-3441
อนุญาต	-3442
รวด	-3443
ที่ทํา	-3444
▁เซนติเมตร	-3445
ลุ	-3446
ฟี	-3447
▁ท่า	-3448
รายงาน	-3449
ไปตาม	-3450
ann	-3451
ปรากฏตัว	-3452
ปาง	-3453
▁ac	-3454
แต่ว	-3455
การเรียน	-3456
▁ร่วมกับ	-3457
▁ศิลปิน	-3458
▁gr	-3459
หาด	-3460
ดาบ	-3461
ถา	-3462
ax	-3463
ทะเบียน	-3464
เรือง	-3465
รัน	-3466
บุร	-3467
▁เจ้าหญิง	-3468
โต้	-3469
ยอง	-3470
ส่วนตําบล	-3471
ร่วมมือ	-3472
ฮ่อง	-3473
0)	-3474
สตาร์	-3475
และเป็น	-3476
มิวน	-3477
▁กา	-3478
▁ซู	-3479
ิสต์	-3480
▁ภายใน	-3481
ีด	-3482
mar	-3483
สํารวจ	-3484
ตี้	-3485
อวกาศ	-3486
▁เนื้อ	-3487
ศรีอยุธยา	-3488
รุ่ง	-3489
เสรี	-3490
ซีรีส์	-3491
ตีพิมพ์	-3492
เวียน	-3493
ที่รู้จัก	-3494
ต้า	-3495
เปรียบ	-3496
ere	-3497
ปลอด	-3498
เน็ต	-3499
สามัญ	-3500
ลอนดอน	-3501
ภาร	-3502
รรยา	-3503
▁sch	-3504
เยาวชน	-3505
ษณา	-3506
▁ช่วง	-3507
อยู	-3508
▁วี	-3509
▁สถาบัน	-3510
พระมหากษัตริย์	-3511
▁มาร์	-3512
ตํานาน	-3513
บันเทิง	-3514
▁ฯ	-3515
โดน	-3516
เผ่า	-3517
ัตรู	-3518
เหลว	-3519
คนแรก	-3520
พันธมิตร	-3521
ผี	-3522
ตรงกับ	-3523
แหลม	-3524
รษ	-3525
▁โรง	-3526
▁border	-3527
เต็ด	-3528
าราช	-3529
ในเมือง	-3530
▁(0)	-3531
ศร	-3532
ค่อย	-3533
บุคคลที่	-3534
ิกิ	-3535
▁เหล	-3536
▁ริ	-3537
▁บุญ	-3538
▁time	-3539
อันดับที่	-3540
เสาร์	-3541
เดล	-3542
แขน	-3543
บุก	-3544
ได้มี	-3545
▁ครอบคลุมพื้นที่	-3546
รายการโทรทัศน์	-3547
ใช้ในการ	-3548
เติบโต	-3549
พน	-3550
แลน	-3551
ทศวรรษ	-3552
▁im	-3553
▁ตัวอย่าง	-3554
ปราบ	-3555
▁ภาพยนตร์	-3556
▁wrest	-3557
ที่มีชื่อเสียง	-3558
โส	-3559
จ้าง	-3560
ืม	-3561
ดับเบิล	-3562
ในยุค	-3563
▁sy	-3564
ออกฉาย	-3565
ดะ	-3566
ase	-3567
▁car	-3568
ลาน	-3569
▁00:00	-3570
คุ้ม	-3571
''.	-3572
พระราชวัง	-3573
ตราย	-3574
วช	-3575
ฟิลิปปินส์	-3576
บุคคลจากจังหวัด	-3577
หนังสือพิมพ์	-3578
▁แจ	-3579
เทคนิค	-3580
ศาสน	-3581
ยังเป็น	-3582
ese	-3583
พงศ์	-3584
ลก	-3585
ฉลอง	-3586
▁เอก	-3587
▁มาร	-3588
ลังก์	-3589
ics	-3590
นาดา	-3591
คัพ	-3592
▁อง	-3593
▁สง	-3594
สลาย	-3595
ปีก	-3596
เกือบ	-3597
ต่อการ	-3598
▁นักร้อง	-3599
tr	-3600
▁กี	-3601
▁ตลอด	-3602
▁องค์	-3603
ที่เรียกว่า	-3604
▁ราช	-3605
จะไม่	-3606
▁กรุงเทพมหานคร	-3607
้ล	-3608
เต้น	-3609
▁แปล	-3610
ได้ว่า	-3611
▁ดาว	-3612
เผือก	-3613
ium	-3614
▁ser	-3615
unt	-3616
กระทบ	-3617
ภาพของ	-3618
ที่ดิน	-3619
svg	-3620
เหมาะสม	-3621
ราก	-3622
นักมวย	-3623
▁par	-3624
ซิน	-3625
หลอด	-3626
ออ	-3627
sc	-3628
ุทธ	-3629
าศัย	-3630
พาณิช	-3631
แต่วัน	-3632
▁นอกจากนั้น	-3633
ec	-3634
ปลด	-3635
แย้ง	-3636
แต่งงาน	-3637
มุ่ง	-3638
วิ่ง	-3639
ดก	-3640
▁มาก	-3641
น้ําหนัก	-3642
มหาสมุทร	-3643
▁ภายหลัง	-3644
▁ต้น	-3645
พร้อมกับ	-3646
)''	-3647
▁จุฬาลงกรณ์	-3648
การสอน	-3649
ผู้หญิง	-3650
โดยใช้	-3651
นอร์	-3652
คอนเสิร์ต	-3653
ศัตรู	-3654
ในเขต	-3655
วาส	-3656
ไนเต็ด	-3657
ธรรมศาสตร์	-3658
ให้ความ	-3659
ที่มีการ	-3660
▁ลง	-3661
▁ได้มีการ	-3662
ิยม	-3663
บาร์	-3664
กัมพูชา	-3665
▁ทั้งนี้	-3666
เสียหาย	-3667
มล	-3668
เก็ต	-3669
ที่ใหญ่	-3670
▁เข้าร่วม	-3671
ทรี	-3672
สงบ	-3673
ผลิตภัณฑ์	-3674
▁สิ่ง	-3675
ประดับ	-3676
▁my	-3677
ค่อนข้าง	-3678
นักบุญ	-3679
▁เป็นพระ	-3680
อาย	-3681
ารุ	-3682
▁เปล	-3683
ไร้	-3684
แก้ไข	-3685
ความสัมพันธ์	-3686
เวลาน	-3687
ฟิก	-3688
▁ประจําปี	-3689
ตอนที่	-3690
เลเซีย	-3691
โดยเฉพาะ	-3692
คว้า	-3693
▁วงศ์	-3694
ที่เกิดขึ้น	-3695
แวร์	-3696
.,	-3697
▁เจ้าชาย	-3698
ไล่	-3699
ปริญญาตรี	-3700
▁ประเภท	-3701
ตรวจสอบ	-3702
ีร์	-3703
▁นคร	-3704
ทักษ	-3705
ครองราชย์	-3706
นี้จะ	-3707
เนียม	-3708
รงค์	-3709
att	-3710
ตาก	-3711
เนส	-3712
▁ชิง	-3713
หมุน	-3714
ญญาณ	-3715
เมล	-3716
ฤกษ์	-3717
▁วิน	-3718
▁*0000	-3719
บางครั้ง	-3720
▁คะ	-3721
▁qu	-3722
▁ขับ	-3723
แตน	-3724
เลียม	-3725
▁เขาได้	-3726
สถานีโทรทัศน์	-3727
ep	-3728
รน	-3729
▁โบ	-3730
พระบรม	-3731
ิมะ	-3732
ด้านการ	-3733
เพื่อการ	-3734
กําแพง	-3735
▁สถาน	-3736
▁แข	-3737
พบว่า	-3738
▁จี	-3739
แนวคิด	-3740
ict	-3741
ก็มี	-3742
อุณห	-3743
ผู้มี	-3744
วบรวม	-3745
เรื่อย	-3746
บาดเจ็บ	-3747
เล็กน้อย	-3748
ข้อความ	-3749
๊ะ	-3750
ork	-3751
อารมณ์	-3752
ิบ	-3753
ที่สาม	-3754
ternational	-3755
ด้วยความ	-3756
ลาก	-3757
▁อาทิ	-3758
ในจังหวัด	-3759
0.	-3760
เผยแพร่	-3761
▁บรร	-3762
คณิตศาสตร์	-3763
ชื่น	-3764
บัลลังก์	-3765
นี้ได้	-3766
สถาปนา	-3767
ทรา	-3768
ohn	-3769
▁แม้ว่า	-3770
▁ก่อตั้ง	-3771
วอลเลย์บอล	-3772
อัส	-3773
▁นก	-3774
ยิน	-3775
▁comp	-3776
บุรุษ	-3777
รวดเร็ว	-3778
เหตุผล	-3779
ห้าม	-3780
▁โรงพยาบาล	-3781
วิลด์	-3782
บ้าง	-3783
แจ้ง	-3784
บัญชี	-3785
bs	-3786
▁ทอง	-3787
ปฏิวัติ	-3788
ละครเรื่อง	-3789
แลก	-3790
▁ผ่าน	-3791
ลอย	-3792
ale	-3793
ฤต	-3794
▁ฉบับ	-3795
▁สนาม	-3796
ติดกับ	-3797
ร้องโดย	-3798
ทําร	-3799
ถี	-3800
นักฟุตบอล	-3801
).	-3802
เอ็ด	-3803
โลหะ	-3804
ปลอดภัย	-3805
▁ธง	-3806
▁โท	-3807
▁ดังนี้	-3808
dr	-3809
ระยะทาง	-3810
สวัส	-3811
ชาญ	-3812
สนิท	-3813
เมียร์ลีก	-3814
ทดสอบ	-3815
▁วิทยาลัย	-3816
▁สาข	-3817
ประถม	-3818
▁คล	-3819
ที่สูง	-3820
สว่าง	-3821
ทองคํา	-3822
คิว	-3823
นโยบาย	-3824
ทุกคน	-3825
อเร	-3826
ระยะเวลา	-3827
เอะ	-3828
อย่างยิ่ง	-3829
ถัง	-3830
วยอร์ก	-3831
▁(0000).	-3832
สังเกต	-3833
▁0000–00	-3834
อินโดนีเซีย	-3835
ส่วนของ	-3836
▁เพื่อให้	-3837
มีลักษณะ	-3838
ดีย์	-3839
▁มีลักษณะ	-3840
เพิ่มเติม	-3841
▁จักรพรรดิ	-3842
๋ว	-3843
ทัล	-3844
ศิษย์	-3845
ina	-3846
▁us	-3847
ree	-3848
ุยส์	-3849
ทุกวัน	-3850
ในงาน	-3851
สีดํา	-3852
เท่ากับ	-3853
ดิโอ	-3854
ทบุรี	-3855
ma	-3856
บรรดา	-3857
สําหรับการ	-3858
ของรัฐ	-3859
นิติ	-3860
่ย	-3861
▁เท่า	-3862
▁จุด	-3863
ข์	-3864
โตร	-3865
▁ชิน	-3866
ถือเป็น	-3867
ที่เมือง	-3868
ปัญญา	-3869
อนแก่น	-3870
ภิก	-3871
โชว์	-3872
ห้วย	-3873
กิโลเมตร	-3874
บอน	-3875
▁เอฟ	-3876
")	-3877
ated	-3878
ข้า	-3879
งค์	-3880
ราษฎร์	-3881
▁นําแสดงโดย	-3882
สป	-3883
▁ผลงาน	-3884
ของโลก	-3885
ีกา	-3886
▁เล่ม	-3887
ทําหน้าที่	-3888
ros	-3889
เขาได้	-3890
เคลื่อนไหว	-3891
จอร์	-3892
โพธิ	-3893
ศักดิ์สิทธิ์	-3894
ก้าว	-3895
ลส์	-3896
▁ซา	-3897
ช้างเผือก	-3898
ier	-3899
ดี้	-3900
จะใช้	-3901
เฟอร์	-3902
ผิดปกติ	-3903
ii	-3904
ther	-3905
ิปต์	-3906
▁หลังจากที่	-3907
ายนอก	-3908
โปรดเกล้าฯ	-3909
สว	-3910
พระบรมราช	-3911
สมเด็จพระเจ้า	-3912
ซึม	-3913
▁เฉ	-3914
▁นายก	-3915
▁เหม	-3916
รรมการ	-3917
ประสิทธิภาพ	-3918
เกส	-3919
▁ดู	-3920
็ญ	-3921
ประสาน	-3922
อัง	-3923
เบิร์ก	-3924
ฮัน	-3925
ll	-3926
▁วิล	-3927
▁art	-3928
ปัก	-3929
ทัพบ	-3930
ชาวอังกฤษ	-3931
ถ่ายทํา	-3932
ดับเบิลยู	-3933
โระ	-3934
ตั้งแต่ปี	-3935
▁สโมสร	-3936
▁ขนาด	-3937
▁สหรัฐอเมริกา	-3938
สวรรคต	-3939
ทย์	-3940
รัชสมัย	-3941
ประดิษฐ์	-3942
pro	-3943
แนะนํา	-3944
eric	-3945
ิ้ล	-3946
ครั้งที่สอง	-3947
ราน	-3948
orn	-3949
▁สาร	-3950
สรรค์	-3951
ผู้ที่	-3952
▁เจ้าฟ้า	-3953
บรรจุ	-3954
โดร	-3955
▁ธนาคาร	-3956
ทักษ์	-3957
เอช	-3958
เพณี	-3959
รายชื่อ	-3960
เมืองหลวง	-3961
ชาร์ต	-3962
เวช	-3963
ล้าง	-3964
วิญญาณ	-3965
รู้สึก	-3966
▁แทน	-3967
▁แค	-3968
ธนาคาร	-3969
แทร	-3970
ออร์	-3971
บ่อย	-3972
che	-3973
สะด	-3974
ชี้	-3975
ศก	-3976
▁ส่ง	-3977
บุคคลจากโรงเรียน	-3978
ey	-3979
ซึ่งมี	-3980
สไต	-3981
สิ่งที่	-3982
อพย	-3983
สต	-3984
ไปเป็น	-3985
โฆษณา	-3986
ky	-3987
ปรึกษา	-3988
ํารุง	-3989
ัมภีร์	-3990
แห่งนี้	-3991
แต่วันที่	-3992
ของพระเจ้า	-3993
ผ่า	-3994
▁ภายใต้	-3995
กีฬ	-3996
อนาคต	-3997
มาถึง	-3998
บูล	-3999
นักงาน	-4000
พี่น้อง	-4001
พรหม	-4002
ทัพบก	-4003
▁เย	-4004
ทันที	-4005
▁หลักสูตร	-4006
ขลา	-4007
รับเชิญ	-4008
มหาชน	-4009
งบ	-4010
์ม	-4011
เพลงของ	-4012
หนู	-4013
ไปแล้ว	-4014
ุป	-4015
▁ลี	-4016
คุก	-4017
▁โช	-4018
ซอฟ	-4019
▁af	-4020
คนหนึ่ง	-4021
ัญญ	-4022
ซับ	-4023
▁เรียกว่า	-4024
วัสด	-4025
หุ่น	-4026
สิ่งแวดล้อม	-4027
▁แม่	-4028
ดีเด่น	-4029
โดยไม่	-4030
ถัด	-4031
นิกาย	-4032
อุดมศึกษา	-4033
ในสังกัด	-4034
เชื่อมต่อ	-4035
▁ฝ่าย	-4036
สิริ	-4037
สาบ	-4038
ลิส	-4039
ศรีธรรม	-4040
ไพร	-4041
ิยาย	-4042
▁คอน	-4043
▁องค์การบริหาร	-4044
วัตร	-4045
▁แซ	-4046
วรรณกรรม	-4047
เธอร์แลนด์	-4048
ที่อยู่ใน	-4049
ame	-4050
ระหว่างประเทศ	-4051
▁la	-4052
เวียง	-4053
เครือข่าย	-4054
หก	-4055
ปุ	-4056
ต่อไปนี้	-4057
ในเวลา	-4058
ฟิส	-4059
สถิติ	-4060
ดัด	-4061
พรีเมียร์ลีก	-4062
แต่อ	-4063
to	-4064
ตรอน	-4065
สุขภาพ	-4066
ชวน	-4067
รวมถึง	-4068
ญจ	-4069
รวบรวม	-4070
อัคร	-4071
อัก	-4072
ามิ	-4073
โขทัย	-4074
จําลอง	-4075
ตุเกส	-4076
้าราชการ	-4077
กราน	-4078
ผิดชอบ	-4079
รัชญา	-4080
เยื่อ	-4081
ประสูติ	-4082
▁คําว่า	-4083
ศล	-4084
▁โฮ	-4085
▁ศาล	-4086
▁๑	-4087
เมิน	-4088
▁so	-4089
แรกที่	-4090
▁คริส	-4091
▁มะ	-4092
ubl	-4093
ภัก	-4094
นครราชสีมา	-4095
คอร์	-4096
กันเป็น	-4097
โปร์	-4098
สถานะ	-4099
ภายนอก	-4100
มหาราช	-4101
ในชื่อ	-4102
กลัว	-4103
▁พุทธ	-4104
ใช้อ	-4105
อนด์	-4106
▁00)	-4107
▁สาธารณ	-4108
▁จบ	-4109
▁แต่ใน	-4110
าต	-4111
ชายฝั่ง	-4112
▁(000	-4113
พฤติกรรม	-4114
เชอร์	-4115
นักศึกษา	-4116
cy	-4117
เจ้าน	-4118
ชิต	-4119
เร็ง	-4120
เกะ	-4121
บุคคลจากคณะ	-4122
สติ	-4123
",	-4124
▁อยู่ใน	-4125
กบ	-4126
ให้มี	-4127
อาหรับ	-4128
ศึกษาธิการ	-4129
ดูด	-4130
ื่ม	-4131
▁000-000	-4132
ศรีธรรมราช	-4133
ไส	-4134
คอมมิวน	-4135
ียิปต์	-4136
หลักของ	-4137
รายละเอียด	-4138
▁en	-4139
ั้งเดิม	-4140
โภค	-4141
▁ชี	-4142
ซิต	-4143
พนม	-4144
เสธ	-4145
ys	-4146
โฉ	-4147
▁จะมี	-4148
ชนิดหนึ่ง	-4149
ปู	-4150
▁:*	-4151
การทํางาน	-4152
โดยทั่วไป	-4153
ช้า	-4154
ไหน	-4155
ดุล	-4156
ดั้ม	-4157
▁เกม	-4158
ม่วง	-4159
โค้ง	-4160
ธารณะ	-4161
เฉลี่ย	-4162
เป้าหมาย	-4163
▁war	-4164
ฉายา	-4165
อยู่บน	-4166
▁โดยที่	-4167
0"	-4168
กล้อง	-4169
็อน	-4170
พิทักษ์	-4171
ขึ้นไป	-4172
อพยพ	-4173
แคนาดา	-4174
นอน	-4175
เชล	-4176
มหาด	-4177
เจ้าหน้าที่	-4178
ในการแข่งขัน	-4179
เจดีย์	-4180
พาณิชย์	-4181
▁sup	-4182
▁ไร่	-4183
ขั้ว	-4184
พัง	-4185
กล้า	-4186
พัฒน์	-4187
ขอนแก่น	-4188
ในรูปแบบ	-4189
▁fe	-4190
ata	-4191
การเลือกตั้ง	-4192
ศาจ	-4193
สําร	-4194
ock	-4195
▁กองทัพ	-4196
ของคน	-4197
▁เป็นบุตร	-4198
รีย	-4199
▁mo	-4200
กลับไป	-4201
แท้จริง	-4202
▁แบ่ง	-4203
วางจําหน่าย	-4204
▁สะ	-4205
▁สยาม	-4206
เชื่อว่า	-4207
▁ไว	-4208
ซ่า	-4209
านนท์	-4210
บรมวงศ์เธอ	-4211
ของตนเอง	-4212
คล้ายกับ	-4213
▁บี	-4214
▁ประตู	-4215
เปียน	-4216
▁อีกทั้ง	-4217
วิเคราะห์	-4218
มาแล้ว	-4219
▁international	-4220
▁อดี	-4221
ต้นไม้	-4222
ไข้	-4223
บุคคลที่เกิด	-4224
เมนต์	-4225
เขาก็	-4226
ภารกิจ	-4227
ทอ	-4228
วีเดน	-4229
▁cent	-4230
▁cell	-4231
ษุ	-4232
▁ทะ	-4233
ร็อก	-4234
และผู้	-4235
▁จอห์น	-4236
port	-4237
หลาน	-4238
af	-4239
▁โดยเป็น	-4240
ฝัง	-4241
ลบ	-4242
▁รัฐบาล	-4243
เสนา	-4244
พระเกียรติ	-4245
ในขณะนั้น	-4246
คุณภาพ	-4247
ขัดแย้ง	-4248
▁ii	-4249
▁ชุม	-4250
ชัก	-4251
gr	-4252
น้ํามัน	-4253
ผู้เล่นใน	-4254
สุร	-4255
แพทยศาสตร์	-4256
อลลาร์	-4257
ออสเตรีย	-4258
▁โรค	-4259
▁wrestling	-4260
▁ระหว่างวันที่	-4261
ความเร็ว	-4262
เซียน	-4263
ผัส	-4264
ซ้ํา	-4265
ton	-4266
คอมมิวนิสต์	-4267
ทรอน	-4268
แช	-4269
be	-4270
รับรอง	-4271
▁ตอนที่	-4272
▁สาธารณรัฐ	-4273
oll	-4274
ระบ	-4275
นิธิ	-4276
รวมทั้ง	-4277
▁press	-4278
มิล	-4279
ประจ	-4280
▁gu	-4281
เสม	-4282
เทียน	-4283
เสี่ยง	-4284
ถอน	-4285
▁พี	-4286
สิงห์	-4287
นุม	-4288
ติดตาม	-4289
คโปร์	-4290
ex	-4291
▁องศา	-4292
▁แผ่น	-4293
พ่าย	-4294
ากลาง	-4295
ว่	-4296
นาค	-4297
ารีส	-4298
นิวยอร์ก	-4299
ance	-4300
▁มีชื่อ	-4301
ake	-4302
ผลิตโดย	-4303
เสา	-4304
▁เทศบาลตําบล	-4305
มาก่อน	-4306
ประชาชาติ	-4307
าจ	-4308
ิจิ	-4309
ในวัน	-4310
ise	-4311
ท่าอากาศยาน	-4312
▁แฮ	-4313
ปทุม	-4314
สัญญ	-4315
▁ข้อ	-4316
▁u	-4317
png	-4318
รด	-4319
ความรัก	-4320
สะสม	-4321
ความหมาย	-4322
ซีน	-4323
my	-4324
เอาชนะ	-4325
ลั	-4326
นิวเคล	-4327
▁แชมป์	-4328
สีเหลือง	-4329
▁ดวง	-4330
ดั้งเดิม	-4331
are	-4332
ุกร์	-4333
สีเขียว	-4334
จัดขึ้น	-4335
ขาธิการ	-4336
ของนาย	-4337
เปีย	-4338
ฝีมือ	-4339
เบิร์ต	-4340
ถ์	-4341
ans	-4342
▁all	-4343
แก๊	-4344
ลฯ	-4345
เป็นรูป	-4346
bl	-4347
คติ	-4348
idae	-4349
ลดลง	-4350
ของวง	-4351
▁0000-00	-4352
งคล	-4353
ในอดีต	-4354
อาณ	-4355
▁em	-4356
วุฒิ	-4357
สาเหตุ	-4358
สุโขทัย	-4359
ลัก	-4360
เพลงที่	-4361
กรอบ	-4362
คนเดียว	-4363
ริยะ	-4364
พระราชโอรส	-4365
ประชาธิปัตย์	-4366
เจ้าพระยา	-4367
▁gre	-4368
รรถ	-4369
พูน	-4370
▁นาที	-4371
หัก	-4372
▁พง	-4373
ดุ	-4374
อันตราย	-4375
พยากร	-4376
▁พัน	-4377
นักกีฬา	-4378
สมรสกับ	-4379
็กซิ	-4380
ฤดูหนาว	-4381
วัสดุ	-4382
อาส	-4383
พระชนม	-4384
▁ภาษ	-4385
ปฏิกิ	-4386
เชียน	-4387
ราชภั	-4388
ฏิ	-4389
▁หลวง	-4390
อุบล	-4391
ไม่เกิน	-4392
ผลให้	-4393
มั่นคง	-4394
โหล	-4395
▁dr	-4396
แปซิ	-4397
ดาล	-4398
▁เข้าร่วมแข่งขัน	-4399
หลายคน	-4400
อียิปต์	-4401
▁โครงการ	-4402
ปฏิเสธ	-4403
au	-4404
▁กรรมการ	-4405
row	-4406
ธรรมดา	-4407
▁ประมาณ	-4408
▁ในสมัย	-4409
อร์น	-4410
โปรตุเกส	-4411
พระราชบัญญัติ	-4412
บัด	-4413
เดนม	-4414
ลี่	-4415
ขนาน	-4416
ดื่ม	-4417
ทายาท	-4418
▁เสียง	-4419
ฮ่องกง	-4420
คาส	-4421
กัง	-4422
เตะ	-4423
เห็นว่า	-4424
โดยตรง	-4425
านี้	-4426
บอร์ด	-4427
ของกลุ่ม	-4428
อยู่อ	-4429
▁เขียน	-4430
ool	-4431
ฟิสิกส์	-4432
บุคคลที่เกิดในปี	-4433
โบสถ์	-4434
▁เกาะ	-4435
▁พรรษา	-4436
เป็นหนึ่งใน	-4437
▁per	-4438
con	-4439
เดียน	-4440
ุลย	-4441
ย้ายไป	-4442
iam	-4443
▁ฤดูกาล	-4444
ชิด	-4445
ทางตอน	-4446
หรือไม่	-4447
้ามเนื้อ	-4448
ของมนุษย์	-4449
"''	-4450
ตีน	-4451
▁ฯลฯ	-4452
เหมือนกับ	-4453
yl	-4454
พจน์	-4455
เว็บไซต์	-4456
สิ่งมีชีวิต	-4457
เครื่องยนต์	-4458
พ้น	-4459
สนอง	-4460
อุทยาน	-4461
พัฒน	-4462
พิพิธภัณฑ์	-4463
สวม	-4464
รหัส	-4465
นักการเมือง	-4466
="0"	-4467
▁res	-4468
นวณ	-4469
แห้ง	-4470
aj	-4471
▁op	-4472
ย่าง	-4473
นุษ	-4474
เสบ	-4475
▁(,	-4476
ไม่ใช่	-4477
ประเมิน	-4478
มายัง	-4479
ถ่ายทอด	-4480
▁ภู	-4481
ตะวันตกเฉียง	-4482
คมนาคม	-4483
ที่โรงเรียน	-4484
ราชธานี	-4485
สิ่งก่อสร้าง	-4486
▁''"	-4487
สาธารณะ	-4488
ขุนนาง	-4489
โตเกียว	-4490
กอ	-4491
ดึง	-4492
ley	-4493
ปัจ	-4494
สอด	-4495
เด็น	-4496
บํารุง	-4497
▁สัง	-4498
เกี่ยวกับการ	-4499
ใต้ดิน	-4500
มู	-4501
able	-4502
คาท	-4503
▁ที่ส	-4504
รังสี	-4505
ตอม	-4506
ส้ม	-4507
ins	-4508
นิเมะ	-4509
ที่เคย	-4510
สร้างขึ้น	-4511
ave	-4512
iet	-4513
จอห์น	-4514
เนียง	-4515
อุณหภูมิ	-4516
ism	-4517
หมื่น	-4518
สะดวก	-4519
▁เหตุ	-4520
-00000	-4521
ถ่ายภาพ	-4522
▁สมเด็จ	-4523
มาเลเซีย	-4524
จิตรกรรม	-4525
ได้ดี	-4526
ิดล	-4527
ations	-4528
ซาร์	-4529
▁และได้รับ	-4530
ฟื้นฟู	-4531
▁พั	-4532
ทั้งตําบล	-4533
เอกชน	-4534
ชุมนุม	-4535
เนเธอร์แลนด์	-4536
ถู	-4537
หวาน	-4538
▁คาร์	-4539
der	-4540
▁ฮิ	-4541
ธนบุรี	-4542
▁โย	-4543
ดัดแปลง	-4544
โดยมี	-4545
irl	-4546
โก้	-4547
ดม	-4548
กวน	-4549
ในรอบ	-4550
ภิกษุ	-4551
มหาวิหาร	-4552
สถานการณ์	-4553
ส่วนตัว	-4554
ิฟ	-4555
าวร	-4556
ร้อยละ	-4557
▁0000-0000)	-4558
เกณฑ์	-4559
ยกเลิก	-4560
บุคล	-4561
ในภาค	-4562
ก็ตาม	-4563
เวิลด์	-4564
เข้ากับ	-4565
▁สุข	-4566
ตัวแทน	-4567
ลงทุน	-4568
ุข	-4569
อาวาส	-4570
ome	-4571
เทา	-4572
านิคม	-4573
▁music	-4574
ve	-4575
▁แนว	-4576
▁mat	-4577
▁รา	-4578
ทํานอง	-4579
แชม	-4580
เธอก	-4581
จนกระทั่ง	-4582
แผ่นดินหมายเลข	-4583
ยุบ	-4584
ฮะ	-4585
ระหว่างการ	-4586
▁ในปัจจุบัน	-4587
เดนมาร์ก	-4588
เขมร	-4589
เจ็ด	-4590
▁ร้อง	-4591
การศึกษาระดับ	-4592
ความร้อน	-4593
▁อักษร	-4594
บูชา	-4595
▁ก็ได้	-4596
หลายครั้ง	-4597
คัมภีร์	-4598
ประเพณี	-4599
รํา	-4600
ดาวเคราะห์	-4601
แฮม	-4602
ญาติ	-4603
รับผิดชอบ	-4604
ปั้น	-4605
ทรู	-4606
ิจฉ	-4607
ถัมภ	-4608
กลิ่น	-4609
ปีศาจ	-4610
นตรี	-4611
ื่อม	-4612
เดินทางไป	-4613
su	-4614
โปแลนด์	-4615
▁มิล	-4616
▁year	-4617
ทัวร์	-4618
เชี่ยว	-4619
มาจากการ	-4620
ในที่สุด	-4621
เคลื่อนที่	-4622
ของตัวเอง	-4623
str	-4624
ทยา	-4625
ในกลุ่ม	-4626
โยะ	-4627
อลิก	-4628
บวช	-4629
▁โต	-4630
กรุณา	-4631
อร์ต	-4632
คู่กับ	-4633
ฟุตบอลโลก	-4634
เบส	-4635
ติดตั้ง	-4636
ฟิน	-4637
▁จู	-4638
▁ทางช่อง	-4639
ไต้	-4640
ene	-4641
▁ตัน	-4642
ราชภัฏ	-4643
เป็นเจ้า	-4644
ตูดิโอ	-4645
แต่งเพลง	-4646
ฆาต	-4647
ที่ก่อตั้ง	-4648
▁แต่ง	-4649
ข้าราชการ	-4650
▁ต่อมาในปี	-4651
yn	-4652
พายุ	-4653
พะ	-4654
้อก	-4655
รถยนต์	-4656
วิทยาเขต	-4657
ย่อง	-4658
ภูมิพล	-4659
ตะวันออกเฉียงใต้	-4660
▁โล	-4661
ดิต	-4662
สังฆ	-4663
ภรรยา	-4664
ank	-4665
ไกร	-4666
ดิส	-4667
ology	-4668
ดาร	-4669
ปรี	-4670
การสร้าง	-4671
จัง	-4672
ประกัน	-4673
ก่อนหน้า	-4674
ปรากฏใน	-4675
▁และในปี	-4676
คลัง	-4677
นิสัย	-4678
งา	-4679
บวก	-4680
โมะ	-4681
ันท	-4682
▁john	-4683
ผลกระทบ	-4684
▁พร้อมกับ	-4685
ถี่	-4686
เวิร์ด	-4687
ธิราช	-4688
ท้อน	-4689
ถาน	-4690
▁นิว	-4691
ลงไป	-4692
เตียน	-4693
มัส	-4694
▁รี	-4695
ที่ทําให้	-4696
ไม่นาน	-4697
สรณ์	-4698
ถัมภ์	-4699
▁เอส	-4700
bc	-4701
พนธ์	-4702
xt	-4703
ตรงข้าม	-4704
กี่	-4705
มวลชน	-4706
วางแผน	-4707
▁ยาว	-4708
หมู่เกาะ	-4709
สิต	-4710
มรดก	-4711
รณ	-4712
โว	-4713
▁สูง	-4714
ความจริง	-4715
▁พ่อ	-4716
โพธิ์	-4717
สําคัญของ	-4718
แหง	-4719
แร่	-4720
▁sm	-4721
นั่น	-4722
▁อนุ	-4723
พรรดิน	-4724
▁ลา	-4725
ember	-4726
▁ขับร้องโดย	-4727
itt	-4728
ยักษ์	-4729
การจัด	-4730
ana	-4731
▁วอล	-4732
มหิดล	-4733
แปซิฟิก	-4734
กรด	-4735
สมุด	-4736
บรรยาย	-4737
งบประมาณ	-4738
▁des	-4739
▁เดอ	-4740
ความรู้สึก	-4741
เขาส	-4742
ังก์ชัน	-4743
inc	-4744
▁ap	-4745
ิร์ล	-4746
ตลก	-4747
▁best	-4748
▁ชั่ว	-4749
ซอน	-4750
หลบ	-4751
วงดนตรี	-4752
ในด้าน	-4753
bert	-4754
อาณาเขต	-4755
ขบวน	-4756
ปารีส	-4757
▁แปลว่า	-4758
อว์	-4759
ปรัชญา	-4760
พระนาง	-4761
โห	-4762
▁cr	-4763
▁แต่อ	-4764
สนธิส	-4765
เกิดการ	-4766
สิ้นพระชนม์	-4767
ขุด	-4768
รีน	-4769
ของมัน	-4770
คํานวณ	-4771
/00	-4772
ดิว	-4773
สันตะ	-4774
เกียรติยศ	-4775
งู	-4776
โลกรัม	-4777
▁ที	-4778
▁eng	-4779
▁สาว	-4780
ป้าย	-4781
ชายของ	-4782
▁อน	-4783
▁สวน	-4784
สัมผัส	-4785
mer	-4786
ลด์	-4787
คนอื่น	-4788
ระเบียบ	-4789
ออกฉายในปี	-4790
เจอ	-4791
ฟอร์ด	-4792
สุทธิ์	-4793
มาตั้งแต่	-4794
้วง	-4795
เอกราช	-4796
แทนที่	-4797
เห็นได้	-4798
ลัย	-4799
▁เอ็น	-4800
air	-4801
ที่ว่า	-4802
ara	-4803
หุ้น	-4804
เพ็ญ	-4805
ทรงพระ	-4806
iel	-4807
ผูก	-4808
รัญ	-4809
ฝา	-4810
ฟรี	-4811
▁เทพ	-4812
ศุกร์	-4813
▁ได	-4814
▁ซึ่งจะ	-4815
คอล	-4816
inal	-4817
พากย์	-4818
▁โด	-4819
ยุกต์	-4820
คุณสมบัติ	-4821
วิถี	-4822
▁มีผู้	-4823
คาย	-4824
ที่เหลือ	-4825
▁ตะ	-4826
▁แอ	-4827
าซ	-4828
การผลิต	-4829
เหรียญทอง	-4830
โดดเด่น	-4831
ทรัพยากร	-4832
แม่เหล็ก	-4833
ปูน	-4834
วิด	-4835
เผา	-4836
▁ยอด	-4837
▁แล	-4838
อดุลย	-4839
ในแต่ละ	-4840
▁แต่ไม่	-4841
ทีมชาติไทย	-4842
▁ครู	-4843
ทางช่อง	-4844
ชาวญี่ปุ่น	-4845
wa	-4846
วุฒิส	-4847
ที่เขา	-4848
คาทอลิก	-4849
▁med	-4850
สาธารณสุข	-4851
เพลงประกอบ	-4852
ที่มา	-4853
ica	-4854
own	-4855
ในระบบ	-4856
ของความ	-4857
ที่ผ่าน	-4858
▁ก่อนที่จะ	-4859
สัญชาติ	-4860
โยธ	-4861
อรี่	-4862
▁ปีก่อน	-4863
fer	-4864
มิวสิก	-4865
กี้	-4866
ซิม	-4867
บิด	-4868
ภาษี	-4869
นาว	-4870
รีย์	-4871
คือการ	-4872
▁หัว	-4873
▁นิ้ว	-4874
ไทร	-4875
ited	-4876
ภักดี	-4877
▁กล่าว	-4878
ade	-4879
ภัทร	-4880
สูญเสีย	-4881
ที่ได้รับการ	-4882
เอกสาร	-4883
ปาล	-4884
ลุง	-4885
บทความ	-4886
ผู้ป่วย	-4887
▁อยุธยา	-4888
หน้าที่เป็น	-4889
จอ	-4890
มเห	-4891
▁แพ้	-4892
พิธีกร	-4893
อุบัติ	-4894
▁มาจาก	-4895
กําจัด	-4896
ห่างจาก	-4897
ัณ	-4898
let	-4899
รภ	-4900
ศรั	-4901
▁คะแนน	-4902
ภูมิพลอดุลย	-4903
ผา	-4904
แฝ	-4905
บรรพ	-4906
เชี่ยวชาญ	-4907
ริต	-4908
▁pol	-4909
▁hist	-4910
ดริ	-4911
นวนิยาย	-4912
รรศ	-4913
หวัน	-4914
อภิ	-4915
อิสลาม	-4916
▁โดยได้	-4917
อาณานิคม	-4918
มณี	-4919
เชิด	-4920
สวีเดน	-4921
สนเทศ	-4922
▁เด็ก	-4923
ของไทย	-4924
เซต	-4925
มังกร	-4926
ประการ	-4927
เบน	-4928
พอใจ	-4929
▁พาก	-4930
บราซิล	-4931
ิณ	-4932
ors	-4933
▁เอ็ม	-4934
ก๊	-4935
▁mod	-4936
ครี	-4937
เข้าชิง	-4938
กองกําลัง	-4939
วชิ	-4940
หญ้า	-4941
▁การ์	-4942
แอบ	-4943
กุมาร	-4944
าราชการ	-4945
าที	-4946
สันตะปา	-4947
ลําดับที่	-4948
ปราการ	-4949
เลง	-4950
▁นั่น	-4951
กรณ	-4952
ตั้งชื่อ	-4953
เทียบกับ	-4954
form	-4955
พัด	-4956
▁el	-4957
สรรพ	-4958
ภูมิพลอดุลยเดช	-4959
โทรศัพท์	-4960
หอม	-4961
▁sing	-4962
ตกแต่ง	-4963
เรียกร	-4964
ฟลาย	-4965
หลาบ	-4966
▁vol	-4967
เซฟ	-4968
แคน	-4969
คริสต์ทศวรรษ	-4970
ink	-4971
ายก	-4972
นั้นมี	-4973
็กซิโก	-4974
มหาดไทย	-4975
ซัส	-4976
▁สงคราม	-4977
๋า	-4978
ล่ม	-4979
▁fr	-4980
ก็เป็น	-4981
ular	-4982
นั้นเป็น	-4983
▁go	-4984
ขั้นตอน	-4985
พระพุทธรูป	-4986
พิก	-4987
ก็ยัง	-4988
▁สมเด็จพระเจ้า	-4989
▁ปรา	-4990
▁เสด็จ	-4991
rop	-4992
ฮิต	-4993
บาส	-4994
ผู้โดยสาร	-4995
กลา	-4996
▁การแข่งขัน	-4997
บอย	-4998
ปฏิรูป	-4999
แนล	-5000
▁ag	-5001
▁ในฐานะ	-5002
ทิพย์	-5003
รัฐสภา	-5004
และเทคโนโลยี	-5005
เลือกตั้งสมาชิก	-5006
▁แท	-5007
▁สาม	-5008
ไค	-5009
พื้นเมือง	-5010
แกรนด์	-5011
อย่างดี	-5012
ไม่ให้	-5013
รับบท	-5014
อายุได้	-5015
▁ก่อนจะ	-5016
กล้ามเนื้อ	-5017
ี้ยน	-5018
แปลก	-5019
โรจน์	-5020
เขตร	-5021
สหประชาชาติ	-5022
▁part	-5023
ลูกทุ่ง	-5024
เฝ	-5025
ลัด	-5026
▁เรา	-5027
▁ประกาศ	-5028
ศึกษาต่อ	-5029
รับประทาน	-5030
rans	-5031
apan	-5032
สุดา	-5033
▁เป็นเมือง	-5034
การ์ด	-5035
ในทาง	-5036
▁ศิริ	-5037
.00.00	-5038
พนักงาน	-5039
นัย	-5040
▁ไท	-5041
รองรับ	-5042
ฝูง	-5043
ครั้งแรกใน	-5044
▁นัด	-5045
สร้างความ	-5046
▁กิโลกรัม	-5047
▁one	-5048
นีย์	-5049
สวัสดิ์	-5050
▁ชั่วโมง	-5051
ูจน์	-5052
สแตน	-5053
อยด์	-5054
นิยาย	-5055
ประมวล	-5056
เข้าไปใน	-5057
ยกย่อง	-5058
▁รู	-5059
กาง	-5060
สลับ	-5061
▁ออส	-5062
ัศ	-5063
ไซด์	-5064
สองคน	-5065
ําร้อง	-5066
หนาแน่น	-5067
ife	-5068
ผนัง	-5069
ผู้ใช้	-5070
ผู้จัดการ	-5071
กรีก	-5072
น่าน	-5073
ฮาร์	-5074
มาส	-5075
และได้	-5076
ล้อ	-5077
▁pe	-5078
ระบอบ	-5079
อลิ	-5080
ชั่วคราว	-5081
▁ตําแหน่ง	-5082
ไปจาก	-5083
ยาส	-5084
แค้น	-5085
เปิดเผย	-5086
ของอ	-5087
โซล	-5088
▁สน	-5089
ลิข	-5090
▁sol	-5091
▁star	-5092
เทอร์เน็ต	-5093
ถึงความ	-5094
ย่า	-5095
▁รายชื่อ	-5096
มิติ	-5097
▁เรือ	-5098
ดอกไม้	-5099
นครศรีธรรมราช	-5100
ต้ม	-5101
ําระ	-5102
อัด	-5103
▁โน	-5104
urn	-5105
เขน	-5106
้ย	-5107
▁king	-5108
ตุลาคม	-5109
ba	-5110
enn	-5111
จรร	-5112
เล่นใน	-5113
▁ถึงแม้	-5114
โคน	-5115
▁วาง	-5116
สันติ	-5117
ในบริเวณ	-5118
เวศ	-5119
ต่อจาก	-5120
▁สุน	-5121
คริสต	-5122
การต่อสู้	-5123
ที่สุดในโลก	-5124
ึ้ง	-5125
ฮ์	-5126
ถาวร	-5127
du	-5128
ปาน	-5129
ision	-5130
▁ล้านบาท	-5131
พรรษา	-5132
แอนด์	-5133
อะนิเมะ	-5134
ไรเดอร์	-5135
▁กํากับ	-5136
มเหสี	-5137
มวยสากล	-5138
รถไฟฟ้า	-5139
มาลา	-5140
ฟ่า	-5141
แหวน	-5142
เศร้า	-5143
▁ที่เป็น	-5144
พระพุทธศาสนา	-5145
▁ค่า	-5146
เยซู	-5147
▁gl	-5148
สีน้ําตาล	-5149
พิน	-5150
แทรก	-5151
▁min	-5152
รษะ	-5153
อนุม	-5154
เดอ	-5155
อลล์	-5156
ฉะ	-5157
อาด	-5158
รายได้	-5159
านุกรม	-5160
ชญ	-5161
พูล	-5162
▁ge	-5163
▁ในประเทศ	-5164
ตุ้น	-5165
ิกซ์	-5166
ox	-5167
เข็ม	-5168
เอาไว้	-5169
▁นายกรัฐมนตรี	-5170
▁เป็นภาพยนตร์	-5171
หลุยส์	-5172
เกินไป	-5173
▁หนังสือ	-5174
ที่สุดของ	-5175
ตะวันออกของ	-5176
ชาน	-5177
ยุทธการ	-5178
เป็นอันดับ	-5179
แพร่หลาย	-5180
ในพื้นที่	-5181
ron	-5182
ater	-5183
▁mon	-5184
มีส่วน	-5185
เป็นเวลา	-5186
เหล่านั้น	-5187
อร์แลนด์	-5188
นิน	-5189
ครีบ	-5190
▁นี้	-5191
▁0:	-5192
กว้างขวาง	-5193
จําเป็นต้อง	-5194
คาบ	-5195
น็อค	-5196
ทั้งคู่	-5197
อล์ฟ	-5198
ความนิยม	-5199
ชีวิตอยู่	-5200
เช้า	-5201
เสริ	-5202
▁พิม	-5203
จิตรกร	-5204
เครื่องหมาย	-5205
ถ้วย	-5206
เช่นเดียวกับ	-5207
าร์ค	-5208
ทั้งหลาย	-5209
ศาสตรบัณฑิต	-5210
▁อัต	-5211
ตาราง	-5212
มิได้	-5213
เทศกาล	-5214
ชื่อของ	-5215
พรรคประชาธิปัตย์	-5216
ิจฉัย	-5217
▁พากย์	-5218
ประสบการณ์	-5219
สหภาพโซเวียต	-5220
ในทวีป	-5221
▁อาจารย์	-5222
เหมือนกัน	-5223
ิ้ม	-5224
▁นอกจากนี้ยัง	-5225
นักเขียน	-5226
เครื่องมือ	-5227
๋ย	-5228
ดาษ	-5229
เลขาธิการ	-5230
ไม่อ	-5231
ไปที่	-5232
▁comm	-5233
พิสูจน์	-5234
จิตใจ	-5235
▁0-00	-5236
กลอง	-5237
โกร	-5238
ชัยชนะ	-5239
▁เชียง	-5240
▁และความ	-5241
สละ	-5242
ามาก	-5243
▁และเมื่อ	-5244
อลลาร์สหรัฐ	-5245
ณุโลก	-5246
▁cont	-5247
ทรอนิกส์	-5248
ตึก	-5249
▁+	-5250
สารสนเทศ	-5251
เตอร์เทน	-5252
00.	-5253
▁อํา	-5254
วัยวะ	-5255
พลาด	-5256
สุพรรณ	-5257
กันดั้ม	-5258
▁ยูไนเต็ด	-5259
ศรีนคร	-5260
▁can	-5261
ในตอน	-5262
ชั้นมัธยมศึกษา	-5263
แรงงาน	-5264
▁จีน	-5265
สี่เหลี่ยม	-5266
▁ตลอดจน	-5267
าละ	-5268
หลุม	-5269
▁her	-5270
▁แผน	-5271
ลวด	-5272
▁วา	-5273
▁ไซ	-5274
▁สุด	-5275
รรมา	-5276
▁ind	-5277
อีกหลาย	-5278
lect	-5279
▁แต่เมื่อ	-5280
ปู่	-5281
ิฟอร์	-5282
▁awards	-5283
▁will	-5284
ปกป้อง	-5285
ลล์	-5286
ทรัพย์สิน	-5287
▁air	-5288
เปลือก	-5289
ันท์	-5290
▁พื้นที่	-5291
▁เพิ	-5292
▁po	-5293
ประถมศึกษา	-5294
▁mag	-5295
เฉลิมพระเกียรติ	-5296
ค้นหา	-5297
ที่นิยม	-5298
กึ่ง	-5299
เอ็มเอ็ม	-5300
บริโภค	-5301
▁หัวหน้า	-5302
เอกลักษณ์	-5303
▁are	-5304
)"	-5305
ble	-5306
ของรัฐบาล	-5307
แปด	-5308
แขวง	-5309
▁สมรส	-5310
▁หอ	-5311
ุภ	-5312
ตนา	-5313
ต์แวร์	-5314
ขนม	-5315
เข้ารับ	-5316
▁ตารางกิโลเมตร	-5317
็ท	-5318
ศิลา	-5319
สงขลา	-5320
▁dis	-5321
โพร	-5322
ถือว่าเป็น	-5323
▁เป็นนักแสดง	-5324
สวยงาม	-5325
หลอดเลือด	-5326
อัลบั้มชุด	-5327
la	-5328
ชั่วโมง	-5329
ซอ	-5330
สมเด็จพระราชินี	-5331
กอก	-5332
▁pre	-5333
เทือก	-5334
๊ป	-5335
หิต	-5336
ชายแดน	-5337
ower	-5338
ms	-5339
ทรมหา	-5340
มืด	-5341
รกี	-5342
อีสาน	-5343
ปรากฏการณ์	-5344
ถือว่า	-5345
way	-5346
เกีย	-5347
▁หมู่ที่	-5348
▁อําเภอบ	-5349
รุณ	-5350
เชียงราย	-5351
▁ซม	-5352
ผู้คน	-5353
เป็นฝ่าย	-5354
ke	-5355
ให้การ	-5356
▁ไฮ	-5357
ขบวนการ	-5358
จะมีการ	-5359
เป็นจํานวนมาก	-5360
ิโอ	-5361
▁!!	-5362
ธงชาติ	-5363
วรวงศ์เธอ	-5364
ไส้	-5365
ต่อสู้กับ	-5366
ที่ไม่มี	-5367
▁ละคร	-5368
จากโรงเรียน	-5369
ทหารบก	-5370
พลเรือน	-5371
▁gen	-5372
ement	-5373
▁ชาย	-5374
rist	-5375
ความเชื่อ	-5376
ายการ	-5377
องค์ประกอบ	-5378
แถว	-5379
▁ทา	-5380
สาขาวิชา	-5381
สุรินทร์	-5382
เนื้อที่	-5383
ราชบัลลังก์	-5384
▁fran	-5385
กวี	-5386
ชื่อดัง	-5387
ต่ํากว่า	-5388
เบา	-5389
ตําร	-5390
▁บุตร	-5391
▁ด้วยการ	-5392
จุฬาลงกรณ์	-5393
ถ้ํา	-5394
โรงแรม	-5395
จักรวาล	-5396
เชสเตอร์	-5397
โพล	-5398
เข้าถึง	-5399
แอต	-5400
เก้า	-5401
กบฏ	-5402
ปี้	-5403
ose	-5404
ษฐา	-5405
▁ส่วนใหญ่	-5406
โหม	-5407
▁อุป	-5408
ซ่อน	-5409
ย่าน	-5410
และพระ	-5411
สันตะปาปา	-5412
▁ent	-5413
ปัจจัย	-5414
ates	-5415
หลาด	-5416
ิฟอร์เนีย	-5417
ไห	-5418
เลส	-5419
▁อดีตร	-5420
อนุรักษ์	-5421
▁ติดต่อกับอําเภอ	-5422
๋ง	-5423
ถูกล	-5424
▁เพื่อน	-5425
inn	-5426
คลาส	-5427
กรุงเทพฯ	-5428
ราเอล	-5429
ศีรษะ	-5430
วัฒนาการ	-5431
หนี้	-5432
ผู้อํานวยการ	-5433
ในสหรัฐอเมริกา	-5434
สนม	-5435
▁อาร	-5436
▁ซึ่งได้	-5437
▁เช่นเดียวกับ	-5438
ลาส	-5439
ไปสู่	-5440
▁ชัย	-5441
อะตอม	-5442
▁.	-5443
นาร	-5444
▁0000-	-5445
▁เรียก	-5446
รักษ	-5447
เปิล	-5448
▁rec	-5449
ยน้ํา	-5450
พฤษภาคม	-5451
เล็กซาน	-5452
ในรายการ	-5453
▁ตั้งอยู่ที่	-5454
ด้า	-5455
ังการ	-5456
oph	-5457
nd	-5458
rap	-5459
▁เป็นหนึ่งใน	-5460
ยากาศ	-5461
ิกาย	-5462
เนียร์	-5463
▁แขวง	-5464
▁หน่วย	-5465
สมัยใหม่	-5466
▁day	-5467
ธันวาคม	-5468
▁คิด	-5469
ละลาย	-5470
มีนาคม	-5471
ประยุกต์	-5472
/0	-5473
ild	-5474
มีย	-5475
าลา	-5476
แมลง	-5477
▁ซิง	-5478
กรุงศรีอยุธยา	-5479
ott	-5480
กาน	-5481
ชลบุรี	-5482
อตแลนด์	-5483
ของตัว	-5484
วินิจฉัย	-5485
ames	-5486
ันต์	-5487
หลักการ	-5488
ผ่	-5489
ได้ถึง	-5490
สัช	-5491
▁แสง	-5492
๊ด	-5493
วาท	-5494
▁ชู	-5495
▁vers	-5496
ว่าจะเป็น	-5497
่งดัง	-5498
▁(0000-0000)	-5499
ที่ต้อง	-5500
กันยายน	-5501
ุช	-5502
▁0''	-5503
▁แต่ละ	-5504
แผ่	-5505
▁เสีย	-5506
▁class	-5507
▁อันเป็น	-5508
กุน	-5509
ซับซ้อน	-5510
ya	-5511
ทาร	-5512
แน่	-5513
ลพ	-5514
เก่าแก่	-5515
ัข	-5516
กาก	-5517
▁inter	-5518
ต่างกัน	-5519
วิชาชีพ	-5520
▁บางครั้ง	-5521
มิด	-5522
ครรภ	-5523
ute	-5524
คําแหง	-5525
▁รูปแบบ	-5526
▁do	-5527
คีรี	-5528
▁พี่	-5529
ไม่เคย	-5530
ien	-5531
▁ass	-5532
▁wwe	-5533
▁ab	-5534
อ่าว	-5535
ฝึกสอน	-5536
ปัส	-5537
ที่น่า	-5538
แปลว่า	-5539
ลงมา	-5540
เกษตรศาสตร์	-5541
ailand	-5542
อักเสบ	-5543
▁00000	-5544
ป้อม	-5545
โน้ม	-5546
▁แต่มี	-5547
ติดเชื้อ	-5548
ถอด	-5549
▁0–	-5550
ปฏิทิน	-5551
uss	-5552
ากา	-5553
เจาะ	-5554
กิตติ	-5555
เสริฐ	-5556
สิงคโปร์	-5557
เคียว	-5558
เศรษฐศาสตร์	-5559
ตัม	-5560
▁กม	-5561
สาวของ	-5562
ka	-5563
อัม	-5564
ผัก	-5565
ศีล	-5566
ลีย์	-5567
ระลึก	-5568
ของโรงเรียน	-5569
อยู่อาศัย	-5570
จืด	-5571
พิพาก	-5572
มน้ํา	-5573
▁กุ	-5574
พ่ายแพ้	-5575
ทม	-5576
yle	-5577
เทว	-5578
็อต	-5579
▁nor	-5580
▁สัตว์	-5581
▁เพียง	-5582
เกิดจาก	-5583
▁อายุ	-5584
ven	-5585
เบต	-5586
stem	-5587
ทุกปี	-5588
เรื่องนี้	-5589
เป็นอย่างมาก	-5590
ution	-5591
มกราคม	-5592
จม	-5593
ว้าง	-5594
สนุก	-5595
เชื้อเพลิง	-5596
แน่นอน	-5597
นิวเคลียร์	-5598
กัล	-5599
▁ฟิล	-5600
ยืนยัน	-5601
กติ	-5602
รัศ	-5603
▁cor	-5604
ไปทาง	-5605
วัช	-5606
▁ธน	-5607
ไว้ว่า	-5608
น้อยกว่า	-5609
อาศัยอยู่ใน	-5610
เพน	-5611
ใช้น	-5612
ตําหนัก	-5613
สัย	-5614
▁ste	-5615
สุดท้ายของ	-5616
เต็มที่	-5617
เม็ด	-5618
▁0,000,000	-5619
uro	-5620
▁ยา	-5621
▁อาณา	-5622
ที่กําลัง	-5623
que	-5624
เมษายน	-5625
ฟังก์ชัน	-5626
▁๒๕	-5627
▁bar	-5628
ก็ถูก	-5629
วุฒิสภา	-5630
กรุ่น	-5631
นิษฐาน	-5632
จัดอันดับ	-5633
ช่อ	-5634
เป็นต้น	-5635
▁สอง	-5636
อัญ	-5637
▁แรง	-5638
▁ได้มี	-5639
วิดีโอเกม	-5640
ธิต	-5641
ที่ประเทศ	-5642
บูร์ก	-5643
เรียกร้อง	-5644
▁off	-5645
▁heav	-5646
กุมารี	-5647
กระตุ้น	-5648
/0000	-5649
ครรภ์	-5650
ไว้ที่	-5651
▁เง	-5652
▁tag	-5653
เนียน	-5654
oo	-5655
ที่แสดง	-5656
สลิม	-5657
▁สําเร็จ	-5658
ca	-5659
หมอ	-5660
▁สิริ	-5661
ใกล้กับ	-5662
▁เหมือน	-5663
▁ลู	-5664
เกราะ	-5665
ทะเลสาบ	-5666
▁สมรสกับ	-5667
ยึดครอง	-5668
ยุติธรรม	-5669
ขึ้นอยู่กับ	-5670
พระราชพิธี	-5671
ยุกแห่ง	-5672
อย่างรวดเร็ว	-5673
สรุป	-5674
▁ต่าง	-5675
▁ญี่ปุ่น	-5676
ก๊ก	-5677
นีย	-5678
น้ําตาล	-5679
ขี้	-5680
ไลท์	-5681
เรียนรู้	-5682
org	-5683
จาน	-5684
กลางของ	-5685
.''	-5686
▁stud	-5687
บันดาล	-5688
แห่งความ	-5689
ทน์	-5690
อาน	-5691
▁เกร	-5692
มวยปล้ํา	-5693
รักษาความ	-5694
เร่ง	-5695
ตะวันตกของ	-5696
ด่าน	-5697
ทางเพศ	-5698
หลังจากที่	-5699
ามหา	-5700
ังหวะ	-5701
อุบัติเหตุ	-5702
▁har	-5703
▁americ	-5704
ปฏิกิริยา	-5705
ull	-5706
เพลย์	-5707
แชมป์โลก	-5708
ให้มีการ	-5709
อินเทอร์เน็ต	-5710
▁ประเทศญี่ปุ่น	-5711
แกะ	-5712
างค์	-5713
สตูดิโอ	-5714
ซุน	-5715
ปรมิน	-5716
ลัทธิ	-5717
ถูกต้อง	-5718
มาตรา	-5719
หน้าน	-5720
ius	-5721
ยับ	-5722
แคบ	-5723
ราชสมบัติ	-5724
บันทึกเสียง	-5725
หอย	-5726
ของบริษัท	-5727
ฮัม	-5728
ประหลาด	-5729
สําเนียง	-5730
นเร	-5731
ใดๆ	-5732
▁ตรา	-5733
ดวงอาทิตย์	-5734
ปน	-5735
ตู้	-5736
โรงงาน	-5737
รามคําแหง	-5738
แลกเปลี่ยน	-5739
ทาส	-5740
▁ดํา	-5741
bur	-5742
และนัก	-5743
ของท่าน	-5744
par	-5745
ที่มาจาก	-5746
▁คิม	-5747
▁พระพุทธ	-5748
ิเม	-5749
เคาร	-5750
ดําร	-5751
หุ้ม	-5752
ในรัฐ	-5753
▁ยังมี	-5754
เคยเป็น	-5755
▁str	-5756
ยุทธ์	-5757
ัฐมนตรี	-5758
การพัฒนา	-5759
เม็กซิโก	-5760
ตอ	-5761
หล่อ	-5762
ประมุข	-5763
อย่างต่อเนื่อง	-5764
▁ช่วย	-5765
อังคาร	-5766
ric	-5767
าวา	-5768
พรรดินี	-5769
ปริญญาโท	-5770
บริหารธุรกิจ	-5771
แขก	-5772
ตอนปลาย	-5773
ane	-5774
▁แกรม	-5775
อุบลราชธานี	-5776
ral	-5777
ific	-5778
▁back	-5779
red	-5780
ฟลายเวท	-5781
▁ที่เมือง	-5782
ตั้งใจ	-5783
เป็นแบบ	-5784
เปลี่ยนชื่อเป็น	-5785
▁มิว	-5786
ภายใต้การ	-5787
ons	-5788
▁พลัง	-5789
กุศล	-5790
▁ทางหลวง	-5791
รอน	-5792
ัคคี	-5793
กุหลาบ	-5794
เชส	-5795
อิเล็กทรอนิกส์	-5796
โอลิมปิกฤดูร้อน	-5797
วิทย์	-5798
ของญี่ปุ่น	-5799
ผ่านการ	-5800
▁สัปดาห์	-5801
▁ขอ	-5802
ensis	-5803
ime	-5804
่ห์	-5805
อกับ	-5806
ij	-5807
บาก	-5808
หร่าน	-5809
าส์	-5810
หัสบดี	-5811
เดส	-5812
ทําได้	-5813
ger	-5814
ret	-5815
ปวด	-5816
▁ดํารง	-5817
▁ล้านคน	-5818
ซอง	-5819
วิทยุโทรทัศน์	-5820
aster	-5821
กลุ่มดนตรี	-5822
รองชนะเลิศ	-5823
ญจน	-5824
เลกุล	-5825
▁ประสูติ	-5826
บริสุทธิ์	-5827
ปรมินทรมหา	-5828
gen	-5829
ทธา	-5830
อาศัยอยู่	-5831
aa	-5832
วิวัฒนาการ	-5833
วน์	-5834
โยธิน	-5835
อภิเษก	-5836
▁แม่น้ํา	-5837
▁หลาย	-5838
ไม่กี่	-5839
▁ธี	-5840
ปรากฏว่า	-5841
▁หนึ่งใน	-5842
มีความสามารถ	-5843
ล่าสุด	-5844
สะท้อน	-5845
ที่ต้องการ	-5846
ใย	-5847
ค้าน	-5848
ดอร์	-5849
ยื่น	-5850
กระจก	-5851
เมล็ด	-5852
▁กรุงเทพฯ	-5853
▁fil	-5854
นําเสนอ	-5855
โด่งดัง	-5856
▁พอ	-5857
คลึง	-5858
▁ฟุต	-5859
จอด	-5860
ชมพู	-5861
▁york	-5862
เป็นที่ตั้ง	-5863
aceae	-5864
▁girl	-5865
ชาวบ้าน	-5866
มัด	-5867
▁file	-5868
▁และมีการ	-5869
▁ห้องเรียน	-5870
▁''(	-5871
้องกัน	-5872
เรด	-5873
โยง	-5874
ตรัง	-5875
vent	-5876
สุนทร	-5877
▁บู	-5878
อย่า	-5879
ต้นฉบับ	-5880
ก้าน	-5881
ตื่น	-5882
▁che	-5883
มาร่วม	-5884
▁และสามารถ	-5885
ิ้ง	-5886
▁up	-5887
ลงใน	-5888
▁version	-5889
▁ver	-5890
จัดทํา	-5891
อธิการ	-5892
▁และต่อมา	-5893
ทูล	-5894
เออร์	-5895
▁แกรมมี่	-5896
ซอฟต์แวร์	-5897
ขัง	-5898
จดหมาย	-5899
▁ทั้งสอง	-5900
โมน	-5901
ชาวย	-5902
พระโอรส	-5903
เจ้าฟ้า	-5904
หลังจากนั้น	-5905
สาข	-5906
กระบ	-5907
คุ้มครอง	-5908
จนถึงปัจจุบัน	-5909
โรม	-5910
ลําปาง	-5911
ได้จาก	-5912
▁publ	-5913
▁หน	-5914
ขึ้นโดย	-5915
เบก	-5916
▁โพ	-5917
ze	-5918
ซ่อม	-5919
▁มิส	-5920
รู้ว่า	-5921
ตัวเป็น	-5922
อย่างหนึ่ง	-5923
บึง	-5924
ouse	-5925
ของนัก	-5926
line	-5927
▁school	-5928
ครอบครอง	-5929
่อยู่	-5930
ได้รับความนิยม	-5931
▁that	-5932
▁ต่อมาได้	-5933
ประจําปี	-5934
wh	-5935
ที่เริ่ม	-5936
อบรม	-5937
แห่งปี	-5938
คิม	-5939
วัยรุ่น	-5940
▁ไช	-5941
apse	-5942
ior	-5943
ไวรัส	-5944
▁พิธี	-5945
เปลี่ยนเป็น	-5946
ถิ่นฐาน	-5947
บรรยากาศ	-5948
▁กิจ	-5949
ple	-5950
▁ปลาย	-5951
▁อีกด้วย	-5952
▁sw	-5953
ความผิด	-5954
ระหว่างปี	-5955
ไอร์แลนด์	-5956
คิน	-5957
กล้วย	-5958
ทรีย์	-5959
▁สัน	-5960
มาใช้	-5961
ใกล้ชิด	-5962
สบ	-5963
▁และผู้	-5964
ual	-5965
เฮน	-5966
บําบัด	-5967
ดาราศาสตร์	-5968
ces	-5969
หมัด	-5970
▁น้อง	-5971
ถึงการ	-5972
▁จันทร์	-5973
ตอง	-5974
ett	-5975
▁เพิ่ม	-5976
ใช้จ่าย	-5977
vel	-5978
ชายา	-5979
มีผู้	-5980
ืบท	-5981
แผนก	-5982
เกษม	-5983
แต่น	-5984
วิเศษ	-5985
เยียม	-5986
ภาคใต้	-5987
พัฒนาการ	-5988
0,	-5989
▁รัฐมนตรี	-5990
สเป	-5991
อุดร	-5992
ตั้งแต่วันที่	-5993
วิท	-5994
ากิ	-5995
▁ร้อย	-5996
ในบทบาท	-5997
▁เนื่อง	-5998
▁โดยจะ	-5999
ฤดูร้อนครั้งที่	-6000
รัตนา	-6001
▁สกุล	-6002
เสนอชื่อ	-6003
นิค	-6004
านัก	-6005
คําร้อง	-6006
ยศาสตร์	-6007
▁ซึ่งทําให้	-6008
เจีย	-6009
เตือน	-6010
พิษณุโลก	-6011
ประดิษฐาน	-6012
ท่อ	-6013
ประท	-6014
นิยาม	-6015
▁วิธี	-6016
เทวี	-6017
▁พัฒ	-6018
แง	-6019
ซาเบ	-6020
อินเตอร์	-6021
บ่อ	-6022
รุก	-6023
▁เคน	-6024
พิพากษา	-6025
ไต้หวัน	-6026
เป็นภาษา	-6027
แชมเปียน	-6028
กรก	-6029
▁kn	-6030
▁โป	-6031
แกร่ง	-6032
▁ชาร์	-6033
▁โปรด	-6034
พระชนมายุ	-6035
of	-6036
ตอบสนอง	-6037
อําเภอบ	-6038
ริส	-6039
▁พระบรมราช	-6040
คาน	-6041
แนก	-6042
▁sl	-6043
ฎหมาย	-6044
▁สมาคม	-6045
▁ตั้งแต่ปี	-6046
ตรดิต	-6047
min	-6048
ความยาว	-6049
หลักทรัพย์	-6050
ระหว่างวันที่	-6051
วอ	-6052
ลิก	-6053
ทั่วประเทศ	-6054
ผู้ชาย	-6055
สีน้ําเงิน	-6056
ปราม	-6057
สร้างเป็น	-6058
▁คณะกรรมการ	-6059
▁แก้ว	-6060
เสื่อม	-6061
พรรคการเมือง	-6062
ael	-6063
uch	-6064
ยี่	-6065
เสก	-6066
โล่	-6067
ทางเดิน	-6068
เป็นของ	-6069
▁เกิดวันที่	-6070
จุฬา	-6071
▁เบล	-6072
เท่ากัน	-6073
ตินา	-6074
กันดี	-6075
▁ชุมชน	-6076
คล้ายคลึง	-6077
จาง	-6078
รัมย์	-6079
▁รัตน	-6080
การแพทย์	-6081
สาวรีย์	-6082
▁มีบุตร	-6083
มิถุนายน	-6084
ออกเสียง	-6085
ไก่	-6086
แคลิฟอร์เนีย	-6087
บางอย่าง	-6088
ืบทอด	-6089
วี่	-6090
ฮิน	-6091
▁act	-6092
ภาษาส	-6093
weight	-6094
ของมหาวิทยาลัย	-6095
อันมี	-6096
ศิลปากร	-6097
▁สมเด็จพระราชินี	-6098
สนธิสัญญา	-6099
out	-6100
สุล	-6101
▁คลอง	-6102
ki	-6103
irst	-6104
อาราม	-6105
▁พันธ	-6106
ทิศทาง	-6107
▁ตรงกับ	-6108
ital	-6109
หลอก	-6110
ไทยแลนด์	-6111
พฤศจิกายน	-6112
จอร์จ	-6113
พฤหัสบดี	-6114
-0.	-6115
เทศบาลตําบล	-6116
หายไป	-6117
คบ	-6118
มามี	-6119
ให้นัก	-6120
ป็อป	-6121
ชั้นสูง	-6122
▁บา	-6123
สไตน์	-6124
▁พระยา	-6125
ได้ด้วย	-6126
เป็นอาหาร	-6127
ฉัตร	-6128
▁เปลี่ยน	-6129
บวร	-6130
สลัก	-6131
เฉิน	-6132
จรา	-6133
เตน	-6134
โนน	-6135
ซิตี	-6136
ส่วนมาก	-6137
▁ศาสตราจารย์	-6138
หมู	-6139
▁คง	-6140
ของระบบ	-6141
ตัวอักษร	-6142
▁ดา	-6143
เภสัช	-6144
ออกมาจาก	-6145
รัชทายาท	-6146
▁ได้รับรางวัล	-6147
ท้า	-6148
ชนบท	-6149
มุสลิม	-6150
ชํา	-6151
กุมภาพันธ์	-6152
ลิขสิทธิ์	-6153
สัตว์เลี้ยง	-6154
▁ปาก	-6155
ยังได้	-6156
เป็นส่วนหนึ่งของ	-6157
พาย	-6158
ปลัด	-6159
เฝ้า	-6160
▁จิน	-6161
คําถาม	-6162
ช่วยให้	-6163
เป็นเมือง	-6164
เหยื่อ	-6165
กอน	-6166
ในภาษา	-6167
อนุมัติ	-6168
ode	-6169
ทักษะ	-6170
ตรดิตถ์	-6171
ิตา	-6172
ient	-6173
วิชั่น	-6174
▁และถูก	-6175
ฝาก	-6176
ินิ	-6177
เกิ้ล	-6178
เปล่า	-6179
▁เป็นคน	-6180
ream	-6181
แรกใน	-6182
นําไปสู่	-6183
▁ปา	-6184
มนตร์	-6185
โคก	-6186
คิดว่า	-6187
ความถี่	-6188
ลาออกจาก	-6189
เมา	-6190
ings	-6191
กรกฎาคม	-6192
ตามลําดับ	-6193
▁ตัวอย่างเช่น	-6194
ari	-6195
มัติ	-6196
ฬิกา	-6197
เคารพ	-6198
aul	-6199
ตับ	-6200
ใกล้เคียงกับ	-6201
เป็นหลัก	-6202
▁จึงทําให้	-6203
ญ์	-6204
ทางเศรษฐกิจ	-6205
ยง	-6206
อรี	-6207
เจร	-6208
บาร	-6209
นิสิต	-6210
โนมัติ	-6211
▁และใช้	-6212
▁แฟน	-6213
านั้น	-6214
แบ่งออกเป็น	-6215
ler	-6216
เก่ง	-6217
บอกว่า	-6218
ชิงชนะเลิศ	-6219
▁โดยทั่วไป	-6220
ที่ก่อตั้งในปี	-6221
ผืน	-6222
▁ตี	-6223
left	-6224
▁system	-6225
ทุกอย่าง	-6226
hi	-6227
รุกราน	-6228
ออนไลน์	-6229
เช่นนี้	-6230
▁การใช้	-6231
เกิดความ	-6232
สัต	-6233
มูลนิธิ	-6234
ร่วมงาน	-6235
เขตร้อน	-6236
ยังมีชีวิตอยู่	-6237
หาญ	-6238
ผ่านทาง	-6239
หุ่นยนต์	-6240
เนื้อเรื่อง	-6241
▁คัน	-6242
▁(0000–	-6243
็ป	-6244
ปลดปล่อย	-6245
อิสราเอล	-6246
▁soc	-6247
วงจร	-6248
ps	-6249
ศวร	-6250
สิทธ	-6251
อร์ส	-6252
เซิล	-6253
ino	-6254
มป์	-6255
ื้อย	-6256
ทรงเป็น	-6257
ผู้ใหญ่	-6258
▁(0000),	-6259
กุฏ	-6260
เจมส์	-6261
ในหลาย	-6262
▁พุทธศักราช	-6263
สะเกษ	-6264
ังการี	-6265
iew	-6266
▁แหล	-6267
กุฎราช	-6268
vol	-6269
ของพวกเขา	-6270
▁char	-6271
เหร	-6272
▁not	-6273
hel	-6274
็อบ	-6275
▁จอร์	-6276
สามารถใช้	-6277
ออง	-6278
over	-6279
▁ปริ	-6280
นิ้ว	-6281
ศาลา	-6282
ดาวน์	-6283
สิงหาคม	-6284
เจ้าอาวาส	-6285
เชิดชู	-6286
เลี่ยง	-6287
▁ไม่ได้	-6288
ผู้ชม	-6289
ถึงแก่	-6290
▁was	-6291
▁ทหาร	-6292
add	-6293
พรม	-6294
นี้คือ	-6295
ราชาธิบดี	-6296
▁0000–0000	-6297
แซม	-6298
ไผ่	-6299
โรมา	-6300
▁gro	-6301
ผู้เป็น	-6302
▁history	-6303
yal	-6304
เสถ	-6305
▁และได้รับการ	-6306
ายา	-6307
▁ธรรม	-6308
ของเมือง	-6309
แท่น	-6310
▁สถาป	-6311
gin	-6312
▁เจน	-6313
fe	-6314
ject	-6315
จราจร	-6316
นุษย์	-6317
วิทยาการ	-6318
กู้	-6319
ด้านหน้า	-6320
▁{	-6321
กูร	-6322
ของจังหวัด	-6323
ออสการ์	-6324
เข้ารอบ	-6325
ลุ่ม	-6326
▁กําลัง	-6327
▁คู่กับ	-6328
ดจ์	-6329
หัด	-6330
จารึก	-6331
ทุกข์	-6332
ประเด็น	-6333
อ้างอิง	-6334
ูกิ	-6335
ของแต่ละ	-6336
so	-6337
▁ชอบ	-6338
ฟอร์ม	-6339
ที่แตกต่างกัน	-6340
ster	-6341
▁ang	-6342
▁เชื่อ	-6343
▁national	-6344
กรุณาโปรดเกล้าฯ	-6345
หัต	-6346
▁ปิ	-6347
▁โดยใน	-6348
คิง	-6349
ลือ	-6350
ศนา	-6351
แบ่งเป็น	-6352
ผิ	-6353
▁อาหาร	-6354
ham	-6355
ก็ไม่	-6356
ชาวจีน	-6357
อนุภาค	-6358
ยาวนาน	-6359
▁ชิงแชมป์	-6360
ความต้องการ	-6361
▁กก	-6362
เล็กๆ	-6363
ตอนต้น	-6364
นางเจ้า	-6365
กองทัพบก	-6366
car	-6367
วส์	-6368
▁สัญ	-6369
รัศมี	-6370
อาจมี	-6371
สายพันธุ์	-6372
แวน	-6373
ตกาล	-6374
ony	-6375
วิจิตร	-6376
gro	-6377
อี้	-6378
ล้วน	-6379
เอ็กซ์	-6380
พระที่นั่ง	-6381
แตกต่างจาก	-6382
▁ระ	-6383
อิหร่าน	-6384
ไทยทีวี	-6385
▁มีผลงาน	-6386
ชาวฝรั่งเศส	-6387
▁thailand	-6388
▁อาณาจักร	-6389
▁บริ	-6390
ล้านนา	-6391
▁ยกเว้น	-6392
เพื่อไทย	-6393
เรก	-6394
หม้อ	-6395
ในโลก	-6396
ฎก	-6397
โลหิต	-6398
อัตโนมัติ	-6399
โมเลกุล	-6400
ที่ยัง	-6401
ผัน	-6402
เสถียร	-6403
นิพนธ์	-6404
ความว่า	-6405
ซัม	-6406
ทักษิณ	-6407
ha	-6408
โคจร	-6409
การทํา	-6410
แต่ไม่	-6411
คาร์บอน	-6412
อันเป็น	-6413
สร้างสรรค์	-6414
อิม	-6415
ุระ	-6416
▁ขุน	-6417
▁มูล	-6418
บูรณะ	-6419
พร้าว	-6420
เสมือน	-6421
แดด	-6422
▁ตระ	-6423
ดิวเซอร์	-6424
อย่างน้อย	-6425
รุ่งเรือง	-6426
เทิร์น	-6427
▁sec	-6428
▁แมค	-6429
นนทบุรี	-6430
ดําเนินงาน	-6431
อําเภอเมือง	-6432
ขึ้นครองราชย์	-6433
ama	-6434
ผลิ	-6435
▁สุวรรณ	-6436
ขีด	-6437
เงา	-6438
▁จอม	-6439
จึงมี	-6440
นับถือ	-6441
▁er	-6442
แถลง	-6443
ience	-6444
หนึ่งที่	-6445
ก่อให้เกิด	-6446
ยั้ง	-6447
แก๊ส	-6448
ลงนาม	-6449
ลุก	-6450
outh	-6451
กรอง	-6452
คล้อง	-6453
อวัยวะ	-6454
แอตแลน	-6455
ขึ้นในปี	-6456
เทือกเขา	-6457
เมต	-6458
เยาว์	-6459
พี่ชาย	-6460
เณ	-6461
ลอบ	-6462
มรดกโลก	-6463
▁edition	-6464
▁นับเป็น	-6465
gh	-6466
ก้า	-6467
โตน	-6468
ปี่	-6469
แก่อ	-6470
▁super	-6471
รัตนราช	-6472
ต้นแบบ	-6473
บันดาลใจ	-6474
เรียบร้อย	-6475
med	-6476
▁พงษ์	-6477
กระดาษ	-6478
▁หม่อมเจ้า	-6479
▁|	-6480
led	-6481
flag	-6482
สามเหลี่ยม	-6483
เอกซ์	-6484
สีช่อง	-6485
คาว	-6486
โหว	-6487
จังหวะ	-6488
eter	-6489
ative	-6490
▁แสดงเป็น	-6491
เรียนการสอน	-6492
▁คอม	-6493
▁เป็นที่	-6494
tv	-6495
เขตการปกครอง	-6496
ผ่อน	-6497
แม่น	-6498
บางคน	-6499
มองเห็น	-6500
ามหาวิทยาลัย	-6501
00)	-6502
ัปตัน	-6503
▁trans	-6504
▁พิมพ์	-6505
จญ	-6506
คุย	-6507
วงกลม	-6508
ัดส่วน	-6509
▁พลเอก	-6510
สูงกว่า	-6511
วัตถุประสงค์	-6512
เป็นการทั่วไป	-6513
anc	-6514
▁song	-6515
จําแนก	-6516
สังเคราะห์	-6517
สิค	-6518
ฟิล์ม	-6519
ประเสริฐ	-6520
รัฐประหาร	-6521
านิติ	-6522
▁ในทาง	-6523
ระบุว่า	-6524
ดิบ	-6525
นรา	-6526
มวยไทย	-6527
สายการบิน	-6528
พื้นดิน	-6529
สํานักพิมพ์	-6530
๊ค	-6531
จินดา	-6532
บลู	-6533
บาลี	-6534
อัสสัม	-6535
กลางเมือง	-6536
โจว	-6537
ล็อก	-6538
รักไทย	-6539
แอนิเม	-6540
▁ในประเทศไทย	-6541
ฮอล	-6542
ผสาน	-6543
▁ป้องกัน	-6544
เซอร์แลนด์	-6545
▁คิ	-6546
ักษา	-6547
มีความหมาย	-6548
บร	-6549
▁di	-6550
สุนัข	-6551
ปิฎก	-6552
แสดงความ	-6553
app	-6554
▁conc	-6555
นี้ว่า	-6556
มหาบัณฑิต	-6557
เนะ	-6558
▁tw	-6559
ที่บ้าน	-6560
ตั	-6561
ner	-6562
ris	-6563
ว่าราชการ	-6564
โชค	-6565
คลิน	-6566
▁อัตรา	-6567
ทริ	-6568
หลายชนิด	-6569
แบค	-6570
โศก	-6571
ค้าง	-6572
▁live	-6573
คุณค่า	-6574
▁fo	-6575
สวด	-6576
ุสิต	-6577
บรรเลง	-6578
จะสามารถ	-6579
ฐานะเป็น	-6580
▁เจ้าของ	-6581
mat	-6582
อัย	-6583
สาธิต	-6584
บรรทุก	-6585
จุลจอมเกล้า	-6586
ราชวิทยาลัย	-6587
▁bro	-6588
▁heavy	-6589
ต่างชาติ	-6590
เลือกตั้งที่	-6591
ในวงศ์	-6592
ดาวฤกษ์	-6593
อุตรดิตถ์	-6594
องค์ที่	-6595
ปราบปราม	-6596
ากะ	-6597
แบร์	-6598
ไหม้	-6599
ก่อการ	-6600
▁ผลิตโดย	-6601
หลังจากการ	-6602
▁นอกจากนี้ยังมี	-6603
บิว	-6604
ลอส	-6605
ไร่	-6606
แข็งแรง	-6607
บุรีรัมย์	-6608
oss	-6609
จาค	-6610
มนต์	-6611
iver	-6612
▁ดิน	-6613
ล้มเหลว	-6614
คริสเตียน	-6615
อท	-6616
เสพ	-6617
ยิ้ม	-6618
มศักดิ์	-6619
เพชรบุรี	-6620
▁q	-6621
▁เศร	-6622
ในตําแหน่ง	-6623
▁ทิศตะวันออก	-6624
จากมหาวิทยาลัย	-6625
▁ยุ	-6626
ทริก	-6627
โซน	-6628
ปฏิส	-6629
ograp	-6630
ตุรกี	-6631
ของพวก	-6632
ในสงคราม	-6633
ประชาสัมพันธ์	-6634
▁ดําเนิน	-6635
สมควร	-6636
ภาษาจีน	-6637
▁ท่าอากาศยาน	-6638
ินีนาถ	-6639
▁ทั้งหมด	-6640
นิติศาสตร์	-6641
เต้	-6642
อุ่น	-6643
▁000,	-6644
แม่ม	-6645
เซียม	-6646
▁000)	-6647
จักรยาน	-6648
▁ประเทศไทย	-6649
ซาเบธ	-6650
▁ค่ํา	-6651
ได้เข้า	-6652
สถานีรถไฟ	-6653
mon	-6654
มอร์	-6655
ื้อน	-6656
▁top	-6657
ตัวผู้	-6658
ใช้เวลา	-6659
▁ซึ่งใน	-6660
แอม	-6661
ที่เขียน	-6662
ฝ่า	-6663
ติย	-6664
ร่ม	-6665
แมว	-6666
▁life	-6667
▁กว้าง	-6668
ขึ้นเพื่อ	-6669
เรียบเรียง	-6670
ไฮโดร	-6671
ไม้ตาย	-6672
ได้รับเลือก	-6673
เพอร์	-6674
▁เจมส์	-6675
ของประเทศไทย	-6676
แกล	-6677
ไมโคร	-6678
โกส	-6679
กุ้ง	-6680
ของเข	-6681
ในพระ	-6682
อนุญาตให้	-6683
ทัต	-6684
นิ่ง	-6685
ในวงการ	-6686
ชิล	-6687
ริยยศ	-6688
สันหลัง	-6689
เปิดสอน	-6690
▁พวกเขา	-6691
▁สังกัดพรรค	-6692
สะอาด	-6693
าน้ํา	-6694
▁อังกฤษ	-6695
เวทมนตร์	-6696
▁high	-6697
ยกเว้น	-6698
ซอล	-6699
ว่าร	-6700
ธิปไตย	-6701
ศรีนคริน	-6702
โขง	-6703
ถูกจับ	-6704
▁ถือเป็น	-6705
ได้สําเร็จ	-6706
ผู้บัญชาการ	-6707
กรีซ	-6708
▁colle	-6709
ทางสังคม	-6710
ผู้กํากับ	-6711
เกิดจากการ	-6712
แอส	-6713
ากรณ์	-6714
เวอร์พูล	-6715
lo	-6716
กาฬ	-6717
▁นอก	-6718
เธอก็	-6719
วิศวกรรมศาสตร์	-6720
บี้	-6721
▁จง	-6722
ควัน	-6723
ประมง	-6724
เล่นให้กับ	-6725
▁รัชกาลที่	-6726
การะ	-6727
จรรย์	-6728
ในนาม	-6729
▁''00	-6730
ลพบุรี	-6731
แสดงใน	-6732
ัฟ	-6733
▁ไล	-6734
เยือน	-6735
มาภรณ์	-6736
▁style	-6737
ไทยทีวีสีช่อง	-6738
เวอร์ชัน	-6739
สกอตแลนด์	-6740
รษณ	-6741
เจก	-6742
โกสิน	-6743
ใบไม้	-6744
▁สิ้น	-6745
สปี	-6746
ก้อน	-6747
เดียม	-6748
eral	-6749
ชีส์	-6750
▁ปฏิ	-6751
ิสถาน	-6752
เวส	-6753
▁เคล	-6754
สงสัย	-6755
▁ทะเล	-6756
จดทะเบียน	-6757
ชื้น	-6758
อยัง	-6759
เดย์	-6760
▁โนะ	-6761
ติมาก	-6762
เธอได้	-6763
สุก	-6764
จิ๋ว	-6765
ลายู	-6766
นอกจาก	-6767
▁ทิศเหนือ	-6768
▁ตั้งอยู่ใน	-6769
บางส่วนของ	-6770
อัศ	-6771
ท่อน	-6772
ตามที่	-6773
ส่วนหนึ่ง	-6774
ลิม	-6775
ไม่เป็น	-6776
▁ทิศใต้	-6777
ซื่อ	-6778
ในแนว	-6779
▁met	-6780
ว่ายน้ํา	-6781
ย้อน	-6782
ขั้วโลก	-6783
เพียงพอ	-6784
▁ตามลําดับ	-6785
ตัวไป	-6786
ที่ใช้ในการ	-6787
อุโบสถ	-6788
โจร	-6789
▁0–0	-6790
ฮังการี	-6791
▁ผู้ช่วย	-6792
ชาวเยอรมัน	-6793
▁พระองค์ทรง	-6794
▁มม	-6795
ธิวาส	-6796
ทําร้าย	-6797
ที่วัด	-6798
สัตว์ป่า	-6799
เบลเยียม	-6800
ไม่มีการ	-6801
▁กรมหลวง	-6802
อันเป็นที่	-6803
no	-6804
▁hy	-6805
▁ภาควิชา	-6806
▁et	-6807
สวามี	-6808
ขึ้นเมื่อ	-6809
แสดงให้เห็น	-6810
จัดการแข่งขัน	-6811
▁เดิน	-6812
▁times	-6813
ชีวภาพ	-6814
▁เชียงใหม่	-6815
cr	-6816
ek	-6817
เรย์	-6818
sch	-6819
ทนา	-6820
ถัดมา	-6821
กันอย่าง	-6822
ไทยรักไทย	-6823
มด	-6824
อิจิ	-6825
ก้าวหน้า	-6826
ราชสํานัก	-6827
หลุด	-6828
เนตร	-6829
ในระยะ	-6830
การเล่น	-6831
มีผลงาน	-6832
▁ฝรั่งเศส	-6833
▁รวมไปถึง	-6834
แผ่นดินไหว	-6835
aut	-6836
ารคาม	-6837
แข็งแกร่ง	-6838
อาคารเรียน	-6839
เป็นที่นิยม	-6840
อดี	-6841
ับถือ	-6842
ทั้งสาม	-6843
เพียงแค่	-6844
ศาสนาคริสต์	-6845
ล่วง	-6846
▁cal	-6847
▁หญิง	-6848
จากประเทศ	-6849
อเมริกาเหนือ	-6850
▁ant	-6851
ty	-6852
ดัม	-6853
รัฐศาสตร์	-6854
ชิญ	-6855
จําพวก	-6856
ที่ชื่อ	-6857
▁ep	-6858
▁ทุกวัน	-6859
นักการเมืองไทย	-6860
ไทยเป็นการทั่วไป	-6861
▁เขตเลือกตั้งที่	-6862
เมฆ	-6863
ขันธ์	-6864
พานิช	-6865
ุกรรม	-6866
ดาวเทียม	-6867
ได้ว่าเป็น	-6868
มุน	-6869
การเขียน	-6870
จะทําให้	-6871
ติดต่อกัน	-6872
▁แถ	-6873
ในที่	-6874
ย้ายมา	-6875
▁ประชา	-6876
พุทธเจ้า	-6877
ในกรุง	-6878
▁พระนาง	-6879
▁ประธานาธิบดี	-6880
แผล	-6881
▁lang	-6882
กลาโหม	-6883
แรงบันดาลใจ	-6884
พญา	-6885
▁mc	-6886
มาก็	-6887
สวิต	-6888
ให้ได้	-6889
จะได้รับ	-6890
สมัครเล่น	-6891
จริต	-6892
ike	-6893
▁กิน	-6894
▁000.	-6895
ในอนาคต	-6896
บ่ง	-6897
โหลด	-6898
ร์รี่	-6899
▁ทวี	-6900
ของกองทัพ	-6901
หลับ	-6902
เอเชียน	-6903
คูณ	-6904
บาต	-6905
ดวงจันทร์	-6906
by	-6907
เยา	-6908
▁out	-6909
▁จะต้อง	-6910
▁ปริญญา	-6911
สําคัญในการ	-6912
ผู้เข้าแข่งขัน	-6913
▁สหราชอาณาจักร	-6914
▁ไมเคิล	-6915
สัญญากับ	-6916
การบริหาร	-6917
แผง	-6918
▁วร	-6919
นนิส	-6920
อิรัก	-6921
▁book	-6922
▁แต่ว่า	-6923
ศิลปินสังกัด	-6924
กลายมาเป็น	-6925
มารับ	-6926
วินัย	-6927
เวลาส	-6928
▁นักเขียน	-6929
ภาษณ์	-6930
ด้านหลัง	-6931
▁โดยเริ่ม	-6932
จอง	-6933
▁tv	-6934
ท่วม	-6935
ertain	-6936
สหกรณ์	-6937
ศรีสะเกษ	-6938
ข้างเคียง	-6939
col	-6940
ชําระ	-6941
นิเวศ	-6942
▁ท้อง	-6943
เป็นลูก	-6944
จัต	-6945
นึก	-6946
▁heavyweight	-6947
ริช	-6948
นาซี	-6949
▁japan	-6950
▁วิทยาเขต	-6951
-000-00000	-6952
▁ผู้น	-6953
มะเร็ง	-6954
▁ตระกูล	-6955
เปรียบเทียบ	-6956
ซีแลนด์	-6957
ตัวเมีย	-6958
โรมันคาทอลิก	-6959
อ่าง	-6960
เวลานาน	-6961
▁การศึกษา	-6962
ator	-6963
สมทบ	-6964
ัตน์	-6965
จัดงาน	-6966
ด้านบน	-6967
อนุบาล	-6968
ross	-6969
ตานี	-6970
ondon	-6971
ของคณะ	-6972
ศาสนิก	-6973
ส่วนประกอบ	-6974
ราษฎร์ธานี	-6975
ทารก	-6976
▁spec	-6977
โปรตีน	-6978
ถุง	-6979
พุธ	-6980
▁ออสเตร	-6981
กซ์	-6982
ฮั่น	-6983
ขอให้	-6984
มูลค่า	-6985
ซาม	-6986
ทัศน	-6987
นิเทศ	-6988
โอง	-6989
▁del	-6990
▁แมน	-6991
ตินิยม	-6992
เงื่อน	-6993
▁0000''	-6994
นี้ถูก	-6995
▁กําหนด	-6996
มารี	-6997
เวสต์	-6998
อุทิศ	-6999
idge	-7000
ัจฉ	-7001
▁je	-7002
คลับ	-7003
เรียล	-7004
ตัวเลข	-7005
ได้ประกาศ	-7006
ทราน	-7007
เบญจ	-7008
เกลือ	-7009
▁วอลเลย์บอล	-7010
หายใจ	-7011
ที่มหาวิทยาลัย	-7012
อิล	-7013
เภา	-7014
ผลไม้	-7015
มาของ	-7016
กระสุน	-7017
▁ฟุตบอล	-7018
▁เกิดเมื่อ	-7019
ชาวไทยเชื้อสาย	-7020
้อยกว่า	-7021
คค	-7022
แสวง	-7023
กังวล	-7024
เคาน	-7025
▁กํากับโดย	-7026
ดาม	-7027
แซน	-7028
แป้ง	-7029
อุดรธานี	-7030
ดอลลาร์สหรัฐ	-7031
gl	-7032
ช่วงเวลา	-7033
ภาคเหนือ	-7034
โกสินทร์	-7035
▁ในที่สุด	-7036
ซัง	-7037
▁#"	-7038
ประท้วง	-7039
เทล	-7040
agon	-7041
วยงาม	-7042
การประกวด	-7043
▁su	-7044
▁น้ําหนัก	-7045
▁พิพิธภัณฑ์	-7046
กวาง	-7047
โต๊ะ	-7048
สืบทอด	-7049
▁cam	-7050
▁เล่น	-7051
บางชนิด	-7052
หลายอย่าง	-7053
๊อก	-7054
▁sur	-7055
สหพันธ์	-7056
▁เป็นชื่อ	-7057
▁ดํารงตําแหน่ง	-7058
ลาล	-7059
▁ประวัติ	-7060
ena	-7061
▁ใจ	-7062
▁บาร์	-7063
ปลายปี	-7064
mo	-7065
ร่อง	-7066
▁แยก	-7067
ค่าใช้จ่าย	-7068
ได้ง่าย	-7069
พระราชดําเนิน	-7070
▁ราว	-7071
▁เลข	-7072
ปราคา	-7073
รวมกัน	-7074
ประกอบไปด้วย	-7075
ugh	-7076
une	-7077
ปอด	-7078
ครบรอบ	-7079
ทีเรีย	-7080
▁สุร	-7081
ในยุโรป	-7082
▁ถ่าย	-7083
พันธุกรรม	-7084
ยอ	-7085
ขี่	-7086
ธรณี	-7087
นียบัตร	-7088
สามัคคี	-7089
ura	-7090
ตลอดเวลา	-7091
ยืม	-7092
สกี	-7093
▁อู	-7094
ผึ้ง	-7095
▁ข้อมูล	-7096
▁ในการแข่งขัน	-7097
อาจเป็น	-7098
for	-7099
ไฟล์	-7100
สุริย	-7101
คริสตกาล	-7102
▁ในงาน	-7103
ที่แท้จริง	-7104
ark	-7105
จิม	-7106
ดุสิต	-7107
ศรัทธา	-7108
หลวงพ่อ	-7109
สมาชิกเหรียญ	-7110
ลังกา	-7111
ที่สี่	-7112
▁มีพื้นที่	-7113
▁ภาพยนตร์เรื่อง	-7114
เวลส์	-7115
นางแบบ	-7116
ทีน	-7117
พลาส	-7118
โดวส์	-7119
▁มณฑล	-7120
▁หมู่บ้าน	-7121
ora	-7122
ียา	-7123
เจ้าคณะ	-7124
▁รุ่นที่	-7125
ท่าเรือ	-7126
▁ชินวัตร	-7127
ได้โดย	-7128
ลวง	-7129
cent	-7130
ดงาม	-7131
รับรู้	-7132
▁club	-7133
วอน	-7134
ทรรศ	-7135
หมาก	-7136
เช่า	-7137
▁coll	-7138
▁ในขณะ	-7139
ano	-7140
▁นิยม	-7141
ในเวลาต่อมา	-7142
ถอย	-7143
rain	-7144
ฝุ่น	-7145
ออกซิ	-7146
ไปรษณ	-7147
▁และพระ	-7148
หน้านั้น	-7149
ฎี	-7150
▁อย่างไรก็ดี	-7151
ชมรม	-7152
▁เพชร	-7153
ทําเป็น	-7154
อิสริยยศ	-7155
เปลี่ยนไป	-7156
▁เท่านั้น	-7157
▁เหรียญทอง	-7158
▁สโมสรฟุตบอล	-7159
เที่ยง	-7160
น้ําแข็ง	-7161
อิเล็กตรอน	-7162
เจลิส	-7163
อาชญ	-7164
เอียง	-7165
เขายัง	-7166
▁เขายัง	-7167
▁ทิศตะวันตก	-7168
วาระ	-7169
▁รู้	-7170
▁สถานที่	-7171
▁🔗	-7172
นส์	-7173
aint	-7174
กั้น	-7175
ขับไล่	-7176
▁เริ่มต้น	-7177
▁พระราชทาน	-7178
ฟลอ	-7179
ิ้น	-7180
สภาวะ	-7181
▁ราชวงศ์	-7182
▁หลังจากการ	-7183
▁และจะ	-7184
ตุ๊ก	-7185
▁ปัญ	-7186
มากนัก	-7187
เพลงนี้	-7188
เมื่อเดือน	-7189
ครุ	-7190
ามัย	-7191
ทรวิ	-7192
บริจาค	-7193
▁หนึ่ง	-7194
chn	-7195
กัส	-7196
ดาร์	-7197
พุ่ม	-7198
▁เอล	-7199
เผชิญ	-7200
▁ได้ถูก	-7201
สัมภาษณ์	-7202
ผจญ	-7203
▁mac	-7204
กําหนดให้	-7205
▁ด้วยความ	-7206
gram	-7207
ใช้ชื่อ	-7208
▁อันดับที่	-7209
▁ger	-7210
▁gold	-7211
ผิวหนัง	-7212
ายณ์	-7213
ิตี้	-7214
▁dav	-7215
เพิ่ง	-7216
ชิงแชมป์โลก	-7217
แคร	-7218
ฟราน	-7219
สาระ	-7220
หลบหนี	-7221
▁ที่นั่ง	-7222
ของอังกฤษ	-7223
bf	-7224
▁ง	-7225
ทช์	-7226
ภิบาล	-7227
ายได้	-7228
ศาสนิกชน	-7229
กระจายพันธุ์	-7230
ชัญ	-7231
▁ฮา	-7232
คลอด	-7233
ผลัก	-7234
▁ณัฐ	-7235
▁christ	-7236
สังคมนิยม	-7237
แห่งหนึ่ง	-7238
มีชื่อเสียง	-7239
▁เปร	-7240
พระนครศรีอยุธยา	-7241
alk	-7242
its	-7243
เดร	-7244
▁จิต	-7245
iation	-7246
มุมมอง	-7247
▁bi	-7248
amil	-7249
ในตัว	-7250
ําลัง	-7251
พระราม	-7252
ford	-7253
ental	-7254
สํารอง	-7255
ริเริ่ม	-7256
ที่มีลักษณะ	-7257
เซย์	-7258
การจัดการ	-7259
่อย่าง	-7260
ชนิดนี้	-7261
กระโดด	-7262
ตอนแรก	-7263
ายน้ํา	-7264
ยูไนเต็ด	-7265
▁กํากับการ	-7266
ออกอากาศตั้งแต่	-7267
oy	-7268
เครียด	-7269
เกษตรกรรม	-7270
คอง	-7271
หมา	-7272
▁โดยให้	-7273
เทป	-7274
ที่เกี่ยวข้อง	-7275
ร่า	-7276
กระท	-7277
ชนนี	-7278
เทิล	-7279
▁ชม	-7280
▁มู	-7281
▁แป	-7282
▁ติ	-7283
จันทน์	-7284
▁จัดเป็น	-7285
รวมตัว	-7286
gy	-7287
ปลอม	-7288
▁นาม	-7289
▁เบน	-7290
กันและ	-7291
ในลักษณะ	-7292
ประหารชีวิต	-7293
เนล	-7294
ด่วน	-7295
ดําริ	-7296
หลีก	-7297
ธิดาใน	-7298
กุฎราชกุมาร	-7299
าริ	-7300
ัตช์	-7301
▁แก้	-7302
โองการ	-7303
ของฝ่าย	-7304
อุส	-7305
▁this	-7306
ทําความ	-7307
ทาว	-7308
▁leg	-7309
นัดดา	-7310
การเรียนรู้	-7311
▁อดีตสมาชิก	-7312
จัดเป็น	-7313
▁พากย์เสียง	-7314
▁##	-7315
▁ผู้อํานวยการ	-7316
ประจําโรงเรียน	-7317
ส่อง	-7318
ฟิ	-7319
โทะ	-7320
▁ชล	-7321
โหวต	-7322
▁วิศว	-7323
ichael	-7324
อ้างว่า	-7325
นักแสดงไทย	-7326
นาญ	-7327
ก๊าซ	-7328
ปลาส	-7329
พิธีก	-7330
พื้นผิว	-7331
แต่งตั้งเป็น	-7332
any	-7333
ที่ไม่ได้	-7334
ทางโทรทัศน์	-7335
เรต	-7336
▁{|	-7337
▁บุน	-7338
▁เศรษฐ	-7339
จีเอ็มเอ็ม	-7340
ชด	-7341
stit	-7342
ชาร์ด	-7343
เจริญเติบโต	-7344
เหง	-7345
สู่อ	-7346
ที่ทรง	-7347
cess	-7348
ุษฎี	-7349
▁โดยมีการ	-7350
บัส	-7351
▁reg	-7352
▁มหาส	-7353
เณร	-7354
วัณ	-7355
บันได	-7356
ชื่นชอบ	-7357
▁ตัวละคร	-7358
เดียวกันกับ	-7359
ชนี	-7360
ทิว	-7361
▁รัง	-7362
▁เงิน	-7363
กัก	-7364
ชรา	-7365
ยธรรม	-7366
▁ร้าน	-7367
ทางกาย	-7368
atur	-7369
เต่า	-7370
ทั้งใน	-7371
ไม่ค่อย	-7372
▁ซูเปอร์	-7373
▁may	-7374
ชาติไทย	-7375
ซีดี	-7376
▁ติด	-7377
▁city	-7378
แผนการ	-7379
แอนเจลิส	-7380
▁เสน	-7381
สั่งให้	-7382
▁เหตุการณ์	-7383
คณะรัฐมนตรี	-7384
fr	-7385
▁mal	-7386
▁กลับ	-7387
ทางอากาศ	-7388
ยิ่งใหญ่	-7389
เงื่อนไข	-7390
มีพระ	-7391
▁เซ็น	-7392
▁และให้	-7393
▁ในอดีต	-7394
ของประชาชน	-7395
▁เป็นการแข่งขัน	-7396
โยน	-7397
arch	-7398
เรนซ์	-7399
มงกุฎไทย	-7400
พลเอก	-7401
▁ไมล์	-7402
▁แหล่ง	-7403
เปอร์เซีย	-7404
อุทยานแห่งชาติ	-7405
▁*00	-7406
▁มือ	-7407
▁เกล	-7408
ความจํา	-7409
หลายแห่ง	-7410
ก่อนที่จะ	-7411
แขวน	-7412
▁ในวัน	-7413
ณิ	-7414
๋อ	-7415
ธุ์	-7416
ปัจจุบันคือ	-7417
ิวะ	-7418
▁rock	-7419
▁first	-7420
ซอย	-7421
▁แอร์	-7422
ครั้งแรกในปี	-7423
หมวด	-7424
▁แกร	-7425
สมการ	-7426
านุการ	-7427
▁ชั้นที่	-7428
จึงต้อง	-7429
เฟร	-7430
▁เสม	-7431
หิ	-7432
ste	-7433
▁เกี่ยว	-7434
ctor	-7435
▁เมล	-7436
▁show	-7437
▁เอฟซี	-7438
▁ชนะคะแนน	-7439
เสด็จสวรรคต	-7440
▁จากมหาวิทยาลัย	-7441
พับ	-7442
สามี	-7443
ปรารถ	-7444
แอนิเมชัน	-7445
เนต	-7446
ัญชนะ	-7447
ตอบรับ	-7448
▁นักเรียน	-7449
จักรพรรดินี	-7450
▁ไข	-7451
ในห้อง	-7452
▁ชีวิต	-7453
ทําหน้าที่เป็น	-7454
เจ้านาย	-7455
ยิ่งขึ้น	-7456
แหล่งน้ํา	-7457
มหาม	-7458
นาฏ	-7459
๋อง	-7460
สาคร	-7461
รังสิต	-7462
รมย์	-7463
้น็อค	-7464
ซิงเกิลในปี	-7465
อนุสรณ์	-7466
▁มิน	-7467
▁ชิ้น	-7468
กีตาร์	-7469
▁เจริญ	-7470
คาล	-7471
ดอย	-7472
เรส	-7473
▁สเต	-7474
ราชมงคล	-7475
คลี	-7476
รัตนโกสินทร์	-7477
▁บรา	-7478
ที่เธอ	-7479
ภูเก็ต	-7480
นั้นได้	-7481
ปีเตอร์	-7482
เวลานั้น	-7483
▁องค์การ	-7484
อัสสัมชัญ	-7485
))	-7486
ยํา	-7487
▁("	-7488
▁อิส	-7489
อาชีว	-7490
▁เหล่า	-7491
gu	-7492
▁div	-7493
รัตนาภรณ์	-7494
หญิงชาวไทย	-7495
▁ครั้น	-7496
ตั้งอยู่ใน	-7497
ซัล	-7498
ลี้	-7499
เชน	-7500
▁ตัด	-7501
▁รอย	-7502
ราชสกุล	-7503
ที่ส่วน	-7504
แมนเชสเตอร์	-7505
ลัน	-7506
▁ter	-7507
้อบ	-7508
มาได้	-7509
ไปจนถึง	-7510
เพื่อเป็น	-7511
▁สภา	-7512
ทิเบต	-7513
ปริศนา	-7514
ดูเหมือน	-7515
น้ําทะเล	-7516
ผัง	-7517
ยีน	-7518
▁ในชื่อ	-7519
▁rem	-7520
นอร์เวย์	-7521
าวุธ	-7522
แอร์ไลน์	-7523
แต่งงานกับ	-7524
ออล	-7525
ones	-7526
▁สะพาน	-7527
ณาธิการ	-7528
อเมริกาใต้	-7529
ภาษาก	-7530
ักษณ์	-7531
ลึ	-7532
wor	-7533
ิมิ	-7534
ในวง	-7535
เบื้องต้น	-7536
และถูก	-7537
าท์	-7538
▁series	-7539
ปัง	-7540
แฝด	-7541
วิชัย	-7542
เดิร์น	-7543
▁จึงมี	-7544
▁จุล	-7545
สไตล์	-7546
ด้านล่าง	-7547
เสื้อผ้า	-7548
▁ซิงเกิล	-7549
คริสตจักร	-7550
hes	-7551
ได้ออก	-7552
จึงเป็น	-7553
สัดส่วน	-7554
ษี	-7555
นามว่า	-7556
ต่างจาก	-7557
sy	-7558
โธ	-7559
ในเกม	-7560
กางเขน	-7561
แผนที่	-7562
▁อาศัย	-7563
ถึงแก่กรรม	-7564
▁กิตติ	-7565
ภาพยนตร์ไทย	-7566
ลังก	-7567
กระบี่	-7568
▁ผู้กํากับ	-7569
▁ฐาน	-7570
ชิงตัน	-7571
หรือการ	-7572
ูปถัมภ์	-7573
ดังต่อไปนี้	-7574
เขามี	-7575
ติมากรรม	-7576
ที่มีฉาก	-7577
กฤษฎ	-7578
▁**''	-7579
▁ผู้เล่น	-7580
้ต	-7581
ข้น	-7582
โฉม	-7583
work	-7584
▁pal	-7585
ตรงกัน	-7586
▁ซึ่งต่อมา	-7587
ta	-7588
นพ	-7589
ึน	-7590
ชุน	-7591
ดอง	-7592
–00	-7593
ได้นํา	-7594
ชื่อเล่น	-7595
ปรก	-7596
วิชัน	-7597
▁ห่าง	-7598
อัญเชิญ	-7599
▁เป็นต้นมา	-7600
ประจําจังหวัด	-7601
เข้าชิงรางวัล	-7602
แอง	-7603
▁โคล	-7604
คัดออก	-7605
คิดค้น	-7606
เอ็นเอ	-7607
▁น้ําตก	-7608
▁โดยไม่	-7609
เถร	-7610
คาบสมุทร	-7611
ในประวัติศาสตร์	-7612
ต่าน	-7613
เด็ด	-7614
เดือด	-7615
ทางศาสนา	-7616
▁entertain	-7617
▁ภาย	-7618
press	-7619
▁และยังมี	-7620
สมุทรปราการ	-7621
▁ออกจําหน่าย	-7622
▁00000000	-7623
▁ฉัน	-7624
▁เอา	-7625
จอมพล	-7626
ดุษฎี	-7627
ภูมิศาสตร์	-7628
สําเร็จราชการ	-7629
▁ตั้งแต่วันที่	-7630
▁ขอบ	-7631
นันท์	-7632
หากิน	-7633
▁night	-7634
ความร่วมมือ	-7635
ที่เกิดจาก	-7636
รีก	-7637
แกง	-7638
โดะ	-7639
▁พรหม	-7640
▁ฌ	-7641
ปัน	-7642
โรห์	-7643
▁สปี	-7644
▁ภาวะ	-7645
▁ฮาร์	-7646
▁จัดขึ้น	-7647
▁ผู้เป็น	-7648
▁เป็นนักร้อง	-7649
▁คู	-7650
ield	-7651
ีกอง	-7652
คําตอบ	-7653
มากที่สุดใน	-7654
พึ่ง	-7655
▁เบอร์	-7656
วดา	-7657
ท้าว	-7658
▁โทร	-7659
จุดเริ่มต้น	-7660
ในประเทศญี่ปุ่น	-7661
าวะ	-7662
▁mov	-7663
ลูกค้า	-7664
ปักกิ่ง	-7665
หลังการ	-7666
จนานุกรม	-7667
ทางวิทยาศาสตร์	-7668
อู่	-7669
ปะทะ	-7670
▁miss	-7671
พระธาตุ	-7672
ชนิดอื่น	-7673
▁ของประเทศ	-7674
นั้นจะ	-7675
แต่งกาย	-7676
▁ในเวลา	-7677
เกษตรและ	-7678
การใช้งาน	-7679
ต้อน	-7680
อย่างหนัก	-7681
อิก	-7682
ของเรา	-7683
▁black	-7684
คณะสงฆ์	-7685
นึง	-7686
▁อภิ	-7687
▁และทรง	-7688
ald	-7689
ํานัก	-7690
▁ตร	-7691
กลีบ	-7692
ลาการ	-7693
▁record	-7694
▁แด	-7695
▁ซาน	-7696
go	-7697
ตร้า	-7698
บทุก	-7699
สินธุ์	-7700
สุพรรณบุรี	-7701
ซั่น	-7702
พบใน	-7703
▁บิ	-7704
▁อั	-7705
eration	-7706
วรวิหาร	-7707
ทศวรรษที่	-7708
จิตอล	-7709
▁เซอร์	-7710
▁ซึ่งเป็นการ	-7711
ทัด	-7712
มาศ	-7713
วด์	-7714
เลิฟ	-7715
กระดับ	-7716
ไม่อาจ	-7717
เรื่อยๆ	-7718
▁ออกอากาศทาง	-7719
bre	-7720
▁ไม้	-7721
▁ทฤษฎี	-7722
สันนิษฐาน	-7723
เทพรัตนราช	-7724
คัส	-7725
หยา	-7726
เค้า	-7727
ground	-7728
ปรารถนา	-7729
ใหม่ของ	-7730
อาจจะเป็น	-7731
ทึ	-7732
ason	-7733
attle	-7734
พระทัย	-7735
กับความ	-7736
การเงิน	-7737
แรงดัน	-7738
พระพุทธเจ้า	-7739
เชื่อมโยง	-7740
ions	-7741
และพัฒนา	-7742
เทศบาลเมือง	-7743
เล็กซานเดอร์	-7744
เซม	-7745
โค้	-7746
▁ฮัน	-7747
แบล	-7748
ท็อป	-7749
คนไทย	-7750
ว่าด้วย	-7751
▁ระยะทาง	-7752
▁เข้าสู่	-7753
บรมราชกุมารี	-7754
บรู	-7755
แทก	-7756
ange	-7757
▁cat	-7758
และไม่	-7759
สถาปนิก	-7760
▁london	-7761
อัตราการ	-7762
▁กล่าวคือ	-7763
ของสมเด็จพระ	-7764
บอส	-7765
▁ear	-7766
▁จัดตั้ง	-7767
ครั้งนั้น	-7768
ประจําการ	-7769
▁กลายเป็น	-7770
▁กษัตริย์	-7771
ละครโทรทัศน์ไทย	-7772
sm	-7773
ize	-7774
ิร์ฟ	-7775
▁sub	-7776
ที่สน	-7777
ประจุ	-7778
อับ	-7779
ียส	-7780
นี้น	-7781
บ้านเมือง	-7782
วัว	-7783
ฮาว	-7784
▁es	-7785
ถ่วง	-7786
ราชบุรี	-7787
กิติ	-7788
พากษ์	-7789
มาต	-7790
▁ปล	-7791
ซากิ	-7792
▁แจ็ก	-7793
ทรงจํา	-7794
แนวทาง	-7795
▁heart	-7796
เป็นเรื่อง	-7797
ature	-7798
▁ข้าว	-7799
ลูกด้วย	-7800
▁สถานีโทรทัศน์	-7801
por	-7802
หนะ	-7803
หงส์	-7804
พลี	-7805
สะกด	-7806
พันปี	-7807
เฮอร์	-7808
และสังคม	-7809
รัล	-7810
เลก	-7811
แย่ง	-7812
เมนท์	-7813
รับราชการ	-7814
พอล	-7815
ไนน์	-7816
้นท์	-7817
▁แอล	-7818
เชียร	-7819
ole	-7820
ยืด	-7821
ince	-7822
นครปฐม	-7823
ากลุ่ม	-7824
พระธรรม	-7825
สเตชัน	-7826
รรณ	-7827
ลืม	-7828
ยะมะ	-7829
▁play	-7830
ทางรถไฟ	-7831
▁ชนะเลิศ	-7832
ทางทหาร	-7833
▁ลําดับ	-7834
▁concert	-7835
▁คอนเสิร์ต	-7836
อกัน	-7837
อภัย	-7838
▁...	-7839
มหาสารคาม	-7840
▁sil	-7841
จะให้	-7842
▁อุทยาน	-7843
พร้อมกัน	-7844
ิตะ	-7845
ีก็	-7846
▁นี	-7847
ผจญภัย	-7848
ต้องใช้	-7849
ศิลปกรรม	-7850
อยู่แล้ว	-7851
เลต	-7852
คนั้น	-7853
นารายณ์	-7854
พื้นบ้าน	-7855
▁ชนะน็อค	-7856
พวง	-7857
ตาซี	-7858
เคอร์	-7859
ผู้ครอง	-7860
▁มีจํานวน	-7861
▁ในรัฐบาล	-7862
สุราษฎร์ธานี	-7863
ida	-7864
net	-7865
ค่ํา	-7866
ราหม	-7867
▁สิน	-7868
▁อาการ	-7869
ที่เรียก	-7870
เทคโนโลยีราชมงคล	-7871
ody	-7872
uck	-7873
▁หัวใจ	-7874
▁ที่ได้	-7875
▁ผู้นํา	-7876
▁แต่การ	-7877
ไปรษณีย์	-7878
เชิดชูยิ่ง	-7879
ฟุ	-7880
ณรงค์	-7881
สีทอง	-7882
ไธ	-7883
▁ma	-7884
นาที	-7885
ji	-7886
โฟน	-7887
▁ขั้น	-7888
▁อดีตรัฐมนตรี	-7889
โมย	-7890
ในรูป	-7891
▁บิดา	-7892
ปกคลุม	-7893
เทพรัตนราชสุดา	-7894
ts	-7895
ปุ่ม	-7896
▁กลาง	-7897
▁ค่าย	-7898
ในเอเชีย	-7899
ในการสร้าง	-7900
ird	-7901
ร่วง	-7902
▁pop	-7903
▁langu	-7904
ที่ปรึกษา	-7905
๋น	-7906
▁cap	-7907
▁val	-7908
รุ่นที่	-7909
บ่อยครั้ง	-7910
อภ	-7911
ดัก	-7912
เซโล	-7913
▁ร่าง	-7914
โลกรุ่น	-7915
งานเขียน	-7916
หญิงยอดเยี่ยม	-7917
▁ยิ่ง	-7918
มหาวชิ	-7919
ผู้อื่น	-7920
▁program	-7921
▁ครีบ	-7922
ข้อตกลง	-7923
ยอดนิยม	-7924
นราธิวาส	-7925
ห้าง	-7926
▁ทรู	-7927
▁ป่า	-7928
กลนคร	-7929
ากรรม	-7930
บุคลิก	-7931
อนามัย	-7932
ครั้งใหญ่	-7933
สมาชิกของ	-7934
▁~	-7935
ลวดลาย	-7936
ความสูง	-7937
ny	-7938
▁แต่น	-7939
▁ถึงแม้ว่า	-7940
▁เพื่อเป็น	-7941
เบร	-7942
แทบ	-7943
เจ้าจอม	-7944
ลักษณะของ	-7945
เนื้อเยื่อ	-7946
▁ในระหว่าง	-7947
เสียชีวิตจาก	-7948
อนุชา	-7949
▁บุคคล	-7950
มอบหมาย	-7951
แก้ปัญหา	-7952
--	-7953
โรก	-7954
เราะ	-7955
ุกเฉิน	-7956
บรรพบุรุษ	-7957
เอ็ดเวิร์ด	-7958
▁ซึ่งสามารถ	-7959
ครั้งสุดท้าย	-7960
จักรวรรดิโรมัน	-7961
ของสหรัฐอเมริกา	-7962
▁นพ	-7963
กราฟ	-7964
▁ประพันธ์	-7965
▁entertainment	-7966
ค้าขาย	-7967
ตอเรีย	-7968
ที่นํา	-7969
ฤดูกาลที่	-7970
ศิษย์เก่า	-7971
▁0-000-00000	-7972
pol	-7973
▁ir	-7974
.000	-7975
ประจําวัน	-7976
ko	-7977
cle	-7978
▁วัง	-7979
▁เอน	-7980
เจนตินา	-7981
▁alb	-7982
▁จะเป็น	-7983
▁0000–00,	-7984
ume	-7985
ขาม	-7986
ุมิ	-7987
คลาสสิก	-7988
อย่างไร	-7989
ฏฐ	-7990
.0)	-7991
จตุ	-7992
ุรัส	-7993
▁ber	-7994
▁pres	-7995
ธิบดีกรม	-7996
อธิการบดี	-7997
ความขัดแย้ง	-7998
ยูน	-7999
เกน	-8000
▁vs	-8001
วิกฤต	-8002
คลินิก	-8003
▁ในยุค	-8004
กล่อง	-8005
กํากับโดย	-8006
ser	-8007
เซียส	-8008
นํามาใช้	-8009
พุทธศาสนา	-8010
ก่อนหน้านี้	-8011
การเรียนการสอน	-8012
แง่	-8013
▁เขาก็	-8014
▁****	-8015
ภาควิชา	-8016
▁เป็นคํา	-8017
ซิด	-8018
พอย	-8019
▁หม่อมราชวงศ์	-8020
ปวง	-8021
ague	-8022
การชก	-8023
▁มิวสิก	-8024
ปี้ยน	-8025
▁ที่ประเทศ	-8026
บัญชีรายชื่อ	-8027
▁วางจําหน่าย	-8028
▁pat	-8029
สีสัน	-8030
สุขุม	-8031
ที่ออก	-8032
ผู้ช่วย	-8033
▁หรือการ	-8034
her	-8035
ิสิ	-8036
▁du	-8037
่อีก	-8038
▁rad	-8039
acing	-8040
ตามมา	-8041
▁เห็น	-8042
เกียร์	-8043
bar	-8044
นักดนตรี	-8045
▁มีประชากร	-8046
ทรรศน์	-8047
วิลเลียม	-8048
ศาสนาพุทธ	-8049
สูร	-8050
▁av	-8051
▁yo	-8052
เครน	-8053
▁film	-8054
▁คอร์	-8055
▁ประช	-8056
วารสาร	-8057
ได้ยิน	-8058
จิตวิทยา	-8059
▁·	-8060
ally	-8061
▁แคล	-8062
▁jo	-8063
ious	-8064
เอลิ	-8065
ไขมัน	-8066
▁your	-8067
▁๓	-8068
ฝึกหัด	-8069
ในหมู่	-8070
▁สุนทร	-8071
▁ในกรณี	-8072
สบาย	-8073
▁และอีก	-8074
▁มากกว่า	-8075
สีฟ้า	-8076
แฟชั่น	-8077
หนองบัว	-8078
po	-8079
ก้น	-8080
▁โกล	-8081
สิ้นสุดลง	-8082
สําเร็จการศึกษา	-8083
ลิป	-8084
erson	-8085
▁จิตร	-8086
▁เว็บ	-8087
เทนนิส	-8088
อย่างกว้างขวาง	-8089
เซส	-8090
▁int	-8091
กาญจน	-8092
▁พระมหากษัตริย์	-8093
งดงาม	-8094
ภูเขาไฟ	-8095
ในอัลบั้ม	-8096
▁และเป็นผู้	-8097
จมูก	-8098
ไมเคิล	-8099
ในโรงเรียน	-8100
▁เป็นโรงเรียน	-8101
ao	-8102
คฤ	-8103
บาป	-8104
พบได้	-8105
ต้านทาน	-8106
คูล	-8107
เฟน	-8108
โรฒ	-8109
มานาน	-8110
พํานัก	-8111
เปี้ยน	-8112
เหมือง	-8113
ในภาพยนตร์	-8114
การคลัง	-8115
▁นิตยสาร	-8116
▁หง	-8117
เปรียญ	-8118
ได้ใช้	-8119
เพลงในปี	-8120
▁เป็นปลา	-8121
ความมั่นคง	-8122
ที่จังหวัด	-8123
ทรัล	-8124
เล็บ	-8125
▁ในเมือง	-8126
ภาษาญี่ปุ่น	-8127
ฮู	-8128
ตัส	-8129
พึง	-8130
lish	-8131
ชาวยิว	-8132
เลขที่	-8133
เลื้อย	-8134
สังฆราช	-8135
ชีววิทยา	-8136
สาวะ	-8137
▁end	-8138
มียอด	-8139
lev	-8140
ฉุกเฉิน	-8141
▁แต่ถ้า	-8142
เบอร์ลิน	-8143
▁วิลเลียม	-8144
เครื่องดนตรี	-8145
ury	-8146
แมง	-8147
ากลับ	-8148
▁มีขนาด	-8149
ธรรมเนียม	-8150
พลา	-8151
▁united	-8152
แปลงร่าง	-8153
▁อุปกรณ์	-8154
ปรึกษ	-8155
พิกัด	-8156
ประชาชนจีน	-8157
▁กู	-8158
ห่วง	-8159
นั้นๆ	-8160
โปรโม	-8161
แต่นั้น	-8162
▁พระครู	-8163
ที่ทําการ	-8164
นครสวรรค์	-8165
ปัต	-8166
▁ทอม	-8167
▁ไว้	-8168
เบรีย	-8169
▁กิ่ง	-8170
▁solid	-8171
ตรงกลาง	-8172
านิติบัญญัติ	-8173
ชาต	-8174
ฟต์	-8175
เลอ	-8176
เชษฐา	-8177
ผู้ทรง	-8178
รับใช้	-8179
ลูกชาย	-8180
▁พัฒนา	-8181
ดรา	-8182
สูบ	-8183
เนา	-8184
ปลาก	-8185
▁red	-8186
ีสถาน	-8187
ซ้อม	-8188
ลําบาก	-8189
พยัญชนะ	-8190
▁จบการศึกษา	-8191
อตโต	-8192
▁bas	-8193
พิทยา	-8194
เป็นวัน	-8195
▁center	-8196
นักมวยปล้ํา	-8197
ทางประวัติศาสตร์	-8198
เถียง	-8199
แม้แต่	-8200
ทหารเรือ	-8201
▁ก่อนที่	-8202
ในสมัยนั้น	-8203
โบล	-8204
▁ชน	-8205
จัดแสดง	-8206
▁american	-8207
อันศักดิ์สิทธิ์	-8208
วรรค	-8209
ูลย์	-8210
อยู่เสมอ	-8211
เรียกชื่อ	-8212
▁เป็นเพลง	-8213
เตอร์เทนเมนต์	-8214
▁park	-8215
ทันสมัย	-8216
▁ส่งผลให้	-8217
rol	-8218
ผลการ	-8219
บุคลากร	-8220
ในเครือ	-8221
ราชินี	-8222
ฉก	-8223
โง	-8224
เชย	-8225
เซิน	-8226
ภาษาม	-8227
วิภาค	-8228
▁กะ	-8229
บางกอก	-8230
คุ้มกัน	-8231
▁เรื่องราว	-8232
จัดจําหน่าย	-8233
ada	-8234
▁sim	-8235
ระบาด	-8236
▁ช่าง	-8237
vd	-8238
ush	-8239
แลง	-8240
▁ke	-8241
▁โฟ	-8242
ival	-8243
ิดส์	-8244
บัณฑิตย	-8245
▁ที่ใช้	-8246
เมริเดียน	-8247
การเปลี่ยนแปลง	-8248
นุ	-8249
เซา	-8250
สารประกอบ	-8251
ซิก	-8252
ตาน	-8253
ส่งออก	-8254
ทรวิโรฒ	-8255
พาส	-8256
แซง	-8257
ราชาคณะ	-8258
gar	-8259
ธนู	-8260
▁คณ	-8261
▁เกษ	-8262
อาเซียน	-8263
ขึ้นใหม่	-8264
เป็นตัวแทน	-8265
แพน	-8266
ขับร้อง	-8267
ก็สามารถ	-8268
มีความยาว	-8269
แอตแลนติก	-8270
แจก	-8271
▁mil	-8272
▁สตี	-8273
แบคทีเรีย	-8274
กองทัพเรือ	-8275
อบี	-8276
หนาม	-8277
▁ไม่ว่าจะเป็น	-8278
แอป	-8279
ขโมย	-8280
ย่อม	-8281
เบิก	-8282
ลาออก	-8283
▁เธอได้	-8284
ซึมเศร้า	-8285
0.0	-8286
ความไม่	-8287
▁และเริ่ม	-8288
ตั้งถิ่นฐาน	-8289
▁li	-8290
▁มั	-8291
ติ้ง	-8292
ฮอร์	-8293
▁สัม	-8294
▁สภาพ	-8295
สูงขึ้น	-8296
แต่อย่าง	-8297
▁นั่นคือ	-8298
ห้องเรียน	-8299
▁พร้อมทั้ง	-8300
อธ	-8301
▁grand	-8302
ผสมผสาน	-8303
▁ออกแบบ	-8304
sa	-8305
wi	-8306
กาม	-8307
ฟ้อง	-8308
โหมด	-8309
ราชทูต	-8310
ตั้งอยู่ที่	-8311
บรรดาศักดิ์	-8312
ux	-8313
งกุฎ	-8314
พัทธ	-8315
แคระ	-8316
▁sal	-8317
โพธิส	-8318
▁ดารา	-8319
เขื่อน	-8320
▁รักษา	-8321
ภาพเขียน	-8322
ขับเคลื่อน	-8323
รูปทรง	-8324
▁มนุษย์	-8325
าระหว่าง	-8326
ปริญญาเอก	-8327
▁คี	-8328
สมุน	-8329
ของทีม	-8330
ลงเล่น	-8331
พระเยซู	-8332
▁ให้กับ	-8333
ขาน	-8334
หลายๆ	-8335
ความปลอดภัย	-8336
ขอบเขต	-8337
สุรทิน	-8338
โปเลียน	-8339
พรรคไทยรักไทย	-8340
ศรีนครินทรวิโรฒ	-8341
bin	-8342
ages	-8343
ยูโร	-8344
▁assoc	-8345
ยูร	-8346
▁ไพ	-8347
กลไก	-8348
เสพติด	-8349
สิ่งของ	-8350
ุบ	-8351
โปล	-8352
กวาด	-8353
คนละ	-8354
อาวุ	-8355
ผ่าตัด	-8356
ที่ผ่านมา	-8357
เตรียมอุดมศึกษา	-8358
ney	-8359
พลู	-8360
ริว	-8361
▁mem	-8362
มารวม	-8363
หลังคา	-8364
ของฝรั่งเศส	-8365
นัส	-8366
atus	-8367
▁don	-8368
บรรลุ	-8369
ที่กําหนด	-8370
กันได้	-8371
สุดยอด	-8372
โดยรวม	-8373
▁ไม่ใช่	-8374
พรรคคอมมิวนิสต์	-8375
ชุดนี้	-8376
นเรศวร	-8377
iy	-8378
วอร์	-8379
ัตสึ	-8380
och	-8381
สตา	-8382
▁มุ	-8383
ื้อก	-8384
วอร์ด	-8385
▁แต่ม	-8386
เหนียว	-8387
▁point	-8388
▁วินาที	-8389
cw	-8390
view	-8391
คุณธรรม	-8392
▁เกาหลี	-8393
▁แพ้คะแนน	-8394
จบการศึกษา	-8395
อรา	-8396
ได้ทําการ	-8397
▁da	-8398
ines	-8399
เชียร์	-8400
ในชีวิต	-8401
ฮอต	-8402
ย็อง	-8403
▁mark	-8404
หน้าต่าง	-8405
เรียว	-8406
▁เวอร์	-8407
หนองคาย	-8408
ทอม	-8409
ัชฌ	-8410
ต่อม	-8411
▁ตลาด	-8412
กองทุน	-8413
ส่วนท้องถิ่น	-8414
เช่นเดียวกัน	-8415
มีความสัมพันธ์	-8416
บง	-8417
จอก	-8418
ella	-8419
โป่ง	-8420
บังคับให้	-8421
อัป	-8422
ะเร็ง	-8423
เฮนรี	-8424
ที่ให้	-8425
มีชื่อ	-8426
▁คล้าย	-8427
เดิมว่า	-8428
แคม	-8429
▁hall	-8430
ความดัน	-8431
บําเพ็ญ	-8432
ฟวี่	-8433
แขนง	-8434
▁his	-8435
เจกต์	-8436
พบูลย์	-8437
ทางการแพทย์	-8438
ที่ใหญ่ที่สุด	-8439
้ก	-8440
ลีน	-8441
▁bre	-8442
พิการ	-8443
อุปถัมภ์	-8444
▁เส้นทาง	-8445
ผสมพันธุ์	-8446
อิทธิพลจาก	-8447
ประกาศนียบัตร	-8448
ไปกับ	-8449
ของจีน	-8450
ผู้บริหาร	-8451
วุ่น	-8452
เทรา	-8453
โชติ	-8454
กติกา	-8455
พาหนะ	-8456
▁port	-8457
▁ก็จะ	-8458
บิลบอร์ด	-8459
มีผล	-8460
นิเทศศาสตร์	-8461
จาม	-8462
▁ty	-8463
ของส	-8464
วงษ์	-8465
เท็น	-8466
ของดาว	-8467
▁science	-8468
ค์ไรเดอร์	-8469
สวิตเซอร์แลนด์	-8470
ดส์	-8471
ริค	-8472
านุภาพ	-8473
▁group	-8474
▁ความยาว	-8475
ร่วมมือกับ	-8476
ที่มีขนาดใหญ่	-8477
โรส	-8478
▁ak	-8479
▁var	-8480
วิลล์	-8481
สมัครรับ	-8482
หัวเมือง	-8483
ที่เหมาะสม	-8484
di	-8485
พระศพ	-8486
ลําพูน	-8487
ได้อีก	-8488
คนแรกของ	-8489
สนับสนุนจาก	-8490
▁ประเทศฝรั่งเศส	-8491
ita	-8492
เฟีย	-8493
แล้ง	-8494
เนชั่น	-8495
ดิจิตอล	-8496
ยุคแห่ง	-8497
▁บุนนาค	-8498
▁และไม่	-8499
ปทุมธานี	-8500
เป็นที่ตั้งของ	-8501
โกรธ	-8502
มีค่า	-8503
สุภาพ	-8504
ยอดขาย	-8505
ชั้นนํา	-8506
คว้าแชมป์	-8507
ที่จะเป็น	-8508
ทก	-8509
▁ตา	-8510
coll	-8511
▁กีฬา	-8512
▁กระดูก	-8513
โบราณคดี	-8514
โปรดิวเซอร์	-8515
ชายยอดเยี่ยม	-8516
ที่เกี่ยวข้องกับ	-8517
▁net	-8518
ชุดที่	-8519
ประโยค	-8520
▁count	-8521
▁great	-8522
ใช้ชีวิต	-8523
▁หมายเลข	-8524
โรงภาพยนตร์	-8525
ซีเรีย	-8526
เคิดส์	-8527
เข้าเรียน	-8528
▁อุด	-8529
พะเยา	-8530
▁เสือ	-8531
ปืนใหญ่	-8532
ศาสตรมหาบัณฑิต	-8533
ตาร	-8534
000.	-8535
▁bel	-8536
▁ที่จะ	-8537
▁หรือชื่อ	-8538
▁เป็นนักฟุตบอล	-8539
แมค	-8540
ตมป์	-8541
inter	-8542
านักแสดง	-8543
."	-8544
▁หย	-8545
ไซม์	-8546
▁กลีบ	-8547
▁ในเขต	-8548
เทพเจ้า	-8549
อาชีวศึกษา	-8550
เข้าด้วยกัน	-8551
har	-8552
ชวา	-8553
หมวก	-8554
แม่ทัพ	-8555
▁ออกฉาย	-8556
▁ครอบครัว	-8557
▁lo	-8558
ฝึกฝน	-8559
ละติน	-8560
ไม่ดี	-8561
ภูมิอากาศ	-8562
โขน	-8563
ไอน	-8564
านต์	-8565
าระบบ	-8566
นายร้อย	-8567
ออกไซด์	-8568
▁ปราสาท	-8569
วู	-8570
สูท	-8571
▁bu	-8572
▁ปอนด์	-8573
เห็นชอบ	-8574
ผู้ได้รับ	-8575
เต็มไปด้วย	-8576
▁arch	-8577
ในการทํา	-8578
ลอก	-8579
▁hol	-8580
▁mer	-8581
▁work	-8582
▁0000),	-8583
▁เพลงประกอบ	-8584
lex	-8585
เหนือจาก	-8586
▁สู	-8587
เพรส	-8588
ไทน์	-8589
ไหล่	-8590
▁der	-8591
ประกาศข่าว	-8592
ผง	-8593
คู่แข่ง	-8594
▁ของโลก	-8595
ของสัตว์	-8596
ออกจําหน่าย	-8597
ซีก	-8598
ดึก	-8599
มัล	-8600
อ้วน	-8601
▁ฟ้า	-8602
▁เวล	-8603
ขึ้นจาก	-8604
แฟนตาซี	-8605
▁ห่างจาก	-8606
ฑา	-8607
use	-8608
▁สิงห์	-8609
แบ่งเขต	-8610
จันทบุรี	-8611
เจ้าเมือง	-8612
ความรุนแรง	-8613
men	-8614
▁พา	-8615
ball	-8616
▁สืบ	-8617
▁ไชย	-8618
โชกุน	-8619
▁ต่อจาก	-8620
จริงแล้ว	-8621
กระจายเสียง	-8622
สภาพแวดล้อม	-8623
▁จา	-8624
iana	-8625
กล่า	-8626
หนวด	-8627
อัศวิน	-8628
อาวุโส	-8629
ท้องที่	-8630
ล่มสลาย	-8631
▁และเพลง	-8632
พาร	-8633
atic	-8634
ข้างต้น	-8635
ผู้ฝึกสอน	-8636
าญ	-8637
รสลัด	-8638
▁นอร์	-8639
งานวิจัย	-8640
อย่างรุนแรง	-8641
oid	-8642
ิกะ	-8643
แรน	-8644
adding	-8645
▁princ	-8646
ระดับสูง	-8647
ความเสียหาย	-8648
ฉลาด	-8649
พราน	-8650
ในตลาด	-8651
vil	-8652
ดัช	-8653
▁mic	-8654
พราหม	-8655
▁หลัก	-8656
ซีเกมส์	-8657
ตั้งแต่อ	-8658
▁techn	-8659
ชิพ	-8660
▁เอ็ด	-8661
พระศรี	-8662
▁คนที่	-8663
ภาพถ่าย	-8664
การเกษตร	-8665
lor	-8666
ซัค	-8667
ชิมะ	-8668
อาญา	-8669
ทางเข้า	-8670
มวยปล้ําอาชีพ	-8671
ชนก	-8672
▁เวช	-8673
เซโลนา	-8674
พลเมือง	-8675
กรีต	-8676
ในกรณี	-8677
▁พระราชโอรส	-8678
ลัพ	-8679
โยค	-8680
ีกองทัพบก	-8681
ตรร	-8682
▁ขน	-8683
พุ่ง	-8684
รนด์	-8685
ตํารา	-8686
าร่วม	-8687
▁ยังคง	-8688
ของเหลว	-8689
ปัสสาวะ	-8690
หาดใหญ่	-8691
เวลากลาง	-8692
เกียรติยศยิ่ง	-8693
พลอย	-8694
ชุมพร	-8695
เมทัล	-8696
วัยเด็ก	-8697
สนามบิน	-8698
การรักษา	-8699
ดุษฎีบัณฑิต	-8700
เขาก	-8701
เดิล	-8702
▁โรงแรม	-8703
อย่างไม่	-8704
โภช	-8705
als	-8706
ars	-8707
new	-8708
ทางแยก	-8709
สูญพันธุ์	-8710
▁โฆ	-8711
ข้อก	-8712
อรุณ	-8713
ident	-8714
ใหญ่ม	-8715
่ารัก	-8716
ส่วนที่	-8717
หัวหน้าพรรค	-8718
๊บ	-8719
นิช	-8720
ness	-8721
▁ควร	-8722
ตามแนว	-8723
หัวข้อ	-8724
มีบทบาท	-8725
เขียนภาพ	-8726
คริสต์ศักราช	-8727
ga	-8728
ฉีด	-8729
ติช	-8730
▁0-0000	-8731
สีกองทัพบก	-8732
▁ตําบลบ้าน	-8733
mp	-8734
นวล	-8735
บ้า	-8736
เท็จ	-8737
เผด็จ	-8738
ทางวิชาการ	-8739
นักมวยสากล	-8740
ขี	-8741
day	-8742
ows	-8743
วงศ	-8744
▁sam	-8745
สหรัฐฯ	-8746
เป็นประจํา	-8747
คนโต	-8748
▁มีอาณาเขต	-8749
มิวสิกวิดีโอ	-8750
reat	-8751
หยัด	-8752
▁กทม	-8753
▁บิน	-8754
สมมติ	-8755
ต้นกําเนิด	-8756
dom	-8757
อิฐ	-8758
เยอร์	-8759
▁รถไฟ	-8760
มีอยู่	-8761
▁มีพระ	-8762
มีโอกาส	-8763
วิทยาคม	-8764
;"	-8765
uman	-8766
กาแฟ	-8767
ปาร์	-8768
รื้อ	-8769
สะเท	-8770
▁มิลลิ	-8771
การทดลอง	-8772
da	-8773
ady	-8774
ริด	-8775
เคว	-8776
วิไล	-8777
▁nov	-8778
▁อัคร	-8779
รรายการ	-8780
▁เป็นตัวละคร	-8781
วีดี	-8782
สุ่ม	-8783
▁ก้าน	-8784
▁ข่าว	-8785
นามสกุล	-8786
▁เป็นพืช	-8787
รรมาธิการ	-8788
นอม	-8789
สมณ	-8790
ถั่ว	-8791
จึงถูก	-8792
ization	-8793
ท้องฟ้า	-8794
▁เขาเป็น	-8795
off	-8796
มิต	-8797
ander	-8798
พิชิต	-8799
กําลังก	-8800
แต่อย่างใด	-8801
▁สาขาวิชาการ	-8802
รัด	-8803
rown	-8804
▁wom	-8805
มกลาง	-8806
ศตวรรษ	-8807
▁house	-8808
ความสะดวก	-8809
▁ความสามารถ	-8810
แชมป์ครั้งที่	-8811
ดีน	-8812
▁นิส	-8813
berg	-8814
▁sum	-8815
็อกซ์	-8816
padding	-8817
ดาราจักร	-8818
าสี	-8819
เริง	-8820
าละติน	-8821
▁ทรงพระ	-8822
นาวี	-8823
โคลน	-8824
▁ศุภ	-8825
นี้ยัง	-8826
กันระหว่าง	-8827
▁พระราชวัง	-8828
มีความสําคัญ	-8829
▁เป็นที่รู้จัก	-8830
ipp	-8831
▁ซิล	-8832
▁wind	-8833
▁ผลิต	-8834
เกษตรและสหกรณ์	-8835
▁ซอย	-8836
ความสนใจ	-8837
ถูกทําลาย	-8838
สรรค	-8839
จริงๆ	-8840
สอบสวน	-8841
อินทร์	-8842
พร้อมด้วย	-8843
แอฟริกาใต้	-8844
▁que	-8845
▁ผิว	-8846
ตกเป็น	-8847
วันแรก	-8848
▁เป็นไม้	-8849
โอด	-8850
หมิง	-8851
▁แบล	-8852
จะทํา	-8853
ทางใต้	-8854
▁michael	-8855
▁มีความยาว	-8856
▁dec	-8857
▁sun	-8858
บริษั	-8859
เวิร์ค	-8860
กลางและ	-8861
การเป็น	-8862
▁เอเชีย	-8863
หลีกเลี่ยง	-8864
มอส	-8865
▁cy	-8866
▁000-0	-8867
▁royal	-8868
ผลักดัน	-8869
ตัวเมือง	-8870
▁cellpadding	-8871
มหาสมุทรแปซิฟิก	-8872
จู่	-8873
มอญ	-8874
▁tom	-8875
ต้นปี	-8876
▁จะได้	-8877
ใหญ่ของ	-8878
ประทับใจ	-8879
มาภรณ์ช้างเผือก	-8880
ss	-8881
ศุภ	-8882
▁ภา	-8883
กลืน	-8884
รางค์	-8885
ํานาจ	-8886
▁ประชากร	-8887
เรื่องของ	-8888
".	-8889
ไพ่	-8890
▁พิน	-8891
▁แสน	-8892
ที่ดีที่สุด	-8893
สีกองทัพบกช่อง	-8894
▁mix	-8895
▁long	-8896
▁their	-8897
iety	-8898
ประสิทธิ์	-8899
▁เทคโนโลยี	-8900
idd	-8901
ในบาง	-8902
▁แพ้น็อค	-8903
ตามกฎหมาย	-8904
▁ตําบลหนอง	-8905
val	-8906
นิม	-8907
จัตุรัส	-8908
วิพากษ์	-8909
เรนเจอร์	-8910
▁เป็นอาคาร	-8911
ชาวเกาหลีใต้	-8912
เทพรัตนราชสุดาฯ	-8913
▁pp	-8914
ทุกๆ	-8915
ลิ่ง	-8916
▁อาวุธ	-8917
▁กรมหมื่น	-8918
ดับเบิลยูอี	-8919
รีบ	-8920
▁kh	-8921
▁ปุ	-8922
สกัด	-8923
สุทธ	-8924
▁ในตอน	-8925
ชาด	-8926
▁ยุค	-8927
พระมหา	-8928
▁david	-8929
▁offic	-8930
เพลงไทย	-8931
▁พิธีกร	-8932
▁(0000–0000)	-8933
rib	-8934
อรรถ	-8935
▁ปืน	-8936
▁แคว	-8937
ภูมิส	-8938
▁tour	-8939
ตช์	-8940
เฟล	-8941
▁ox	-8942
้ําร	-8943
▁ซัน	-8944
ผ่านมา	-8945
พีเดีย	-8946
พ่อแม่	-8947
ซีย์	-8948
พาร์	-8949
สกฤต	-8950
กัปตัน	-8951
ชํานาญ	-8952
หลายปี	-8953
แยกตัว	-8954
ที่ปรากฏ	-8955
▁ด้วยเหตุ	-8956
กม	-8957
คัม	-8958
▁นะ	-8959
ideo	-8960
▁south	-8961
▁william	-8962
แต่งตั้งให้	-8963
ในศตวรรษที่	-8964
ภาษาฝรั่งเศส	-8965
สัญลักษณ์ของ	-8966
res	-8967
ทดแทน	-8968
ในรัชกาลที่	-8969
คุ้ง	-8970
ยกทัพ	-8971
ลัพธ์	-8972
พรมแดน	-8973
เป็นผล	-8974
ชาวอิตาลี	-8975
ซะกะ	-8976
▁ben	-8977
▁van	-8978
สุดของ	-8979
ในน้ํา	-8980
หนังสือการ์ตูน	-8981
ourn	-8982
▁โลก	-8983
ในกรุงเทพมหานคร	-8984
นาท	-8985
สุริ	-8986
ฮินดู	-8987
เจ้าภาพ	-8988
▁robert	-8989
▁เป็นกลุ่ม	-8990
▁เสียชีวิต	-8991
wf	-8992
lin	-8993
▁คิง	-8994
สมดุล	-8995
สายตา	-8996
งานของ	-8997
บนเกาะ	-8998
▁ดนตรี	-8999
อินทรีย์	-9000
เลขานุการ	-9001
ทัว	-9002
โคม	-9003
▁:''	-9004
พฤกษ์	-9005
พิชัย	-9006
หาสน์	-9007
▁แต่เนื่องจาก	-9008
je	-9009
uan	-9010
พริก	-9011
▁กรุ	-9012
ตัวตาย	-9013
การต่างประเทศ	-9014
ูร	-9015
วิว	-9016
▁news	-9017
▁แอนด์	-9018
เขียนบท	-9019
▁ผู้ที่	-9020
เฉลิมฉลอง	-9021
เพื่อที่จะ	-9022
กระบอก	-9023
ผู้ชนะ	-9024
มีอํานาจ	-9025
งับ	-9026
อเน	-9027
▁ทิ	-9028
จันทร	-9029
บูรพา	-9030
รวมกับ	-9031
▁online	-9032
ฤติ	-9033
โอม	-9034
▁ขวบ	-9035
สุทธิ	-9036
▁dream	-9037
นั่นเอง	-9038
หรา	-9039
ขึ้นกับ	-9040
โซม	-9041
บีซี	-9042
ศักย	-9043
เกมอน	-9044
พัฒนาม	-9045
ลิเวอร์พูล	-9046
▁ที่จังหวัด	-9047
ปม	-9048
ักจะ	-9049
▁but	-9050
▁คือการ	-9051
ในภูมิภาค	-9052
uz	-9053
พารา	-9054
▁fre	-9055
▁มาน	-9056
จับกุม	-9057
▁ไปยัง	-9058
ด้านข้าง	-9059
สอดคล้อง	-9060
▁และทําให้	-9061
เอเชียนเกมส์	-9062
ลย์	-9063
มลายู	-9064
เกล็ด	-9065
▁german	-9066
▁states	-9067
▁กีตาร์	-9068
ะวะ	-9069
▁อุต	-9070
เสริญ	-9071
▁ชาติ	-9072
สปีชีส์	-9073
โพธิสัตว์	-9074
สภานิติบัญญัติ	-9075
rd	-9076
กิง	-9077
พิง	-9078
โวล	-9079
ต่าย	-9080
▁ข้าง	-9081
▁วิชา	-9082
ลูกสาว	-9083
▁พบว่า	-9084
▁เป็นอดีต	-9085
ป้องกันการ	-9086
อโร	-9087
▁dan	-9088
เจียง	-9089
มีการใช้	-9090
▁(:	-9091
เถระ	-9092
ังคับ	-9093
ใหม่น	-9094
ในสกุล	-9095
ซิงเกิ้ล	-9096
เอลิซาเบธ	-9097
):	-9098
ures	-9099
สั่น	-9100
โจรสลัด	-9101
เรื่องการ	-9102
▁สํานักพิมพ์	-9103
วูด	-9104
เนชัน	-9105
บริดจ์	-9106
ศาสตร์และ	-9107
osh	-9108
unc	-9109
publ	-9110
พ้นจาก	-9111
ภาคต่อ	-9112
▁ปีที่	-9113
▁มักจะ	-9114
บุตรชาย	-9115
ได้เพียง	-9116
ปรับเปลี่ยน	-9117
met	-9118
ฟอง	-9119
โอร	-9120
▁สป	-9121
ฉลาม	-9122
บีเอส	-9123
▁phil	-9124
duction	-9125
สนามกีฬา	-9126
สวนกุหลาบ	-9127
▁×	-9128
โดม	-9129
ี๋ย	-9130
ในยุ	-9131
เปียโน	-9132
▁power	-9133
ระบบการ	-9134
ในพระเจ้า	-9135
ภูมิประเทศ	-9136
เงินรางวัล	-9137
ศาสนาอิสลาม	-9138
เวต	-9139
๊อป	-9140
ไทม์	-9141
▁jack	-9142
▁ทั้งคู่	-9143
ฎีกา	-9144
▁ลีก	-9145
ทราบว่า	-9146
หญิงสาว	-9147
กระทรวงมหาดไทย	-9148
ผ่านไป	-9149
มือถือ	-9150
spacing	-9151
ประมวลผล	-9152
เรเคิดส์	-9153
ประติมากรรม	-9154
เพช	-9155
คีย์	-9156
▁ill	-9157
ตะเภา	-9158
ตามหา	-9159
ในความ	-9160
ริบ	-9161
▁over	-9162
และใช้	-9163
▁การแสดง	-9164
การปกครองของ	-9165
คล้ายคลึงกับ	-9166
แม่น้ําเจ้าพระยา	-9167
don	-9168
▁เหน	-9169
กิติ์	-9170
ตามิน	-9171
กฤษฎีกา	-9172
อาร์เจนตินา	-9173
▁cellspacing	-9174
▁ปาน	-9175
▁เอช	-9176
ลี้ภัย	-9177
▁ศิลปะ	-9178
คอนกรีต	-9179
ละครเวที	-9180
jo	-9181
▁ค้น	-9182
▁แพร	-9183
เจรจา	-9184
มีขนาด	-9185
▁อเมริ	-9186
ซื้อขาย	-9187
▁กล่าวว่า	-9188
ในสมเด็จพระ	-9189
▁ออสเตรเลีย	-9190
เดะ	-9191
สมภพ	-9192
▁มัง	-9193
ส่งผล	-9194
▁เขามี	-9195
เป็นจํานวน	-9196
▁วัฒน	-9197
บริเตน	-9198
▁เป็นซิงเกิล	-9199
ทิม	-9200
คลาย	-9201
แซ็ก	-9202
สับสน	-9203
โมบิล	-9204
ต่อกัน	-9205
▁จอร์จ	-9206
แฮร์รี่	-9207
ชีวิตของ	-9208
ยุปราคา	-9209
รอยด์	-9210
ในแบบ	-9211
ที่ส่ง	-9212
ควบคุมการ	-9213
ซุก	-9214
วีร	-9215
ชักชวน	-9216
ทีเดียว	-9217
▁และนัก	-9218
ที่มีอยู่	-9219
วิกตอเรีย	-9220
จากการแข่งขัน	-9221
คอป	-9222
!!00	-9223
คารา	-9224
วัชร	-9225
เกรง	-9226
โพรง	-9227
ได้มา	-9228
ผิดพลาด	-9229
จุดประสงค์	-9230
▁รุ่ง	-9231
ลึกลับ	-9232
▁state	-9233
▁ทําให้เกิด	-9234
▁พระบรมราชินีนาถ	-9235
wwe	-9236
นิคม	-9237
ฟาร์	-9238
บูลย์	-9239
oto	-9240
คลา	-9241
สภณ	-9242
aker	-9243
▁คืน	-9244
สีเทา	-9245
วงแหวน	-9246
น้องชาย	-9247
ไม่เห็น	-9248
ผู้ปกครอง	-9249
▁uk	-9250
ารับ	-9251
▁มิติ	-9252
ได้รับพระราชทาน	-9253
els	-9254
มัย	-9255
ุมาก	-9256
▁line	-9257
▁อย่า	-9258
ใบหน้า	-9259
ตุลาการ	-9260
ออกอัลบั้ม	-9261
li	-9262
▁แร	-9263
วิกิ	-9264
▁นี่	-9265
ของโรค	-9266
ารักษ์	-9267
วรรณคดี	-9268
▁project	-9269
เกาหลีเหนือ	-9270
ครัฐ	-9271
โดยรอบ	-9272
▁สิทธิ	-9273
▁สมบัติ	-9274
ดยุกแห่ง	-9275
เผด็จการ	-9276
▁เพราะว่า	-9277
iro	-9278
สงวน	-9279
เจอกับ	-9280
ซิ่ง	-9281
เนียล	-9282
▁good	-9283
▁พันธุ์	-9284
ตั้งเป็น	-9285
พุทธศตวรรษที่	-9286
โญ	-9287
ลิ้น	-9288
▁story	-9289
เข้มข้น	-9290
สัมพันธมิตร	-9291
วัค	-9292
โรมาเนีย	-9293
ผลประโยชน์	-9294
ในครั้งนี้	-9295
▁มิลลิเมตร	-9296
เทค	-9297
▁ไก	-9298
ters	-9299
ไลฟ์	-9300
▁000–	-9301
ก็ต้อง	-9302
▁เที่ย	-9303
▁แต่จะ	-9304
เซมเบิร์ก	-9305
นัง	-9306
....	-9307
▁ยาน	-9308
▁เอม	-9309
▁instit	-9310
▁league	-9311
ได้สร้าง	-9312
▁เมื่อถึง	-9313
ญแจ	-9314
เซ่	-9315
uary	-9316
หลิน	-9317
โรดม	-9318
จักรี	-9319
ของชาติ	-9320
ัศจรรย์	-9321
▁ทําหน้าที่	-9322
ฟท์	-9323
แด่	-9324
▁ปร	-9325
ชายหาด	-9326
พันธรัฐ	-9327
ฤดูหนาวครั้งที่	-9328
ชัยภูมิ	-9329
เบื้องหลัง	-9330
ทางวัฒนธรรม	-9331
oul	-9332
เบะ	-9333
พลัน	-9334
ส์ลีก	-9335
ในส่วน	-9336
ัมพันธ์	-9337
ภาพยนตร์โดย	-9338
▁โรงเรียนบ้าน	-9339
▁จากละครเรื่อง	-9340
กษ	-9341
ฆัง	-9342
ลุม	-9343
ดริด	-9344
ตรัส	-9345
ร็อค	-9346
โหลก	-9347
เงียบ	-9348
ําหนด	-9349
▁แคว้น	-9350
▁เขาจึง	-9351
ไม่มีใคร	-9352
โรล	-9353
▁มห	-9354
มังงะ	-9355
ป่าไม้	-9356
▁north	-9357
▁วิทยาศาสตร์	-9358
ori	-9359
จูด	-9360
นวม	-9361
รีม	-9362
anth	-9363
กรีน	-9364
▁"''	-9365
แกเรีย	-9366
แกรมมี่	-9367
ออกซิเจน	-9368
▁กระทั่ง	-9369
▁ประชาชน	-9370
ในระหว่าง	-9371
พญ	-9372
▁‘	-9373
▁law	-9374
▁พืช	-9375
▁land	-9376
ทางเลือก	-9377
▁แสดงโดย	-9378
สงเคราะห์	-9379
ลอสแอนเจลิส	-9380
เรล	-9381
▁cd	-9382
char	-9383
เดรีย	-9384
จําคุก	-9385
มหาศาล	-9386
สู้กับ	-9387
คุณหญิง	-9388
▁และนาง	-9389
▁ปรากฏตัว	-9390
ครั้งแรกเมื่อ	-9391
บอด	-9392
บุน	-9393
เข้	-9394
▁พอล	-9395
▁เฮน	-9396
สิงโต	-9397
formation	-9398
▁ปัจจุบันมี	-9399
▁เพื่อเป็นการ	-9400
หฺ	-9401
elf	-9402
hed	-9403
▁ฉะ	-9404
▁ฟา	-9405
ผิวด	-9406
ในปีพ	-9407
พักผ่อน	-9408
▁เครื่องบิน	-9409
๊ส	-9410
ามะ	-9411
เอ็ก	-9412
บริวาร	-9413
ภาพที่	-9414
ปรับตัว	-9415
volution	-9416
ไฮโดรเจน	-9417
▁ให้เป็น	-9418
คําแนะนํา	-9419
แห่งราชอาณาจักร	-9420
นัล	-9421
หุบ	-9422
โรคม	-9423
▁ret	-9424
อนันต์	-9425
ได้ทั้ง	-9426
▁เจ้าหน้าที่	-9427
si	-9428
จรวด	-9429
ก็ทรง	-9430
ซุเมะ	-9431
ิสิทธิ์	-9432
▁ลําตัว	-9433
ประจําทาง	-9434
ก่อนหน้านั้น	-9435
ญญ	-9436
▁อร	-9437
▁ไน	-9438
ร์รี	-9439
อสัง	-9440
▁บัว	-9441
ฉันท์	-9442
พอยท์	-9443
ให้ผู้	-9444
▁เดวิด	-9445
านุวงศ์	-9446
▁สถานีรถไฟ	-9447
▁พระที่นั่ง	-9448
วิง	-9449
iter	-9450
ขึ้นชก	-9451
เชิงเทรา	-9452
ได้เริ่ม	-9453
ไปทางทิศ	-9454
▁ตีพิมพ์	-9455
ไถ	-9456
▁00:	-9457
เสียด	-9458
ไปทั่ว	-9459
▁right	-9460
ทหารราบ	-9461
แห่งการ	-9462
นิวซีแลนด์	-9463
วันอาทิตย์	-9464
▁และอําเภอ	-9465
▁sa	-9466
โมงค์	-9467
แสดงว่า	-9468
ปากีสถาน	-9469
ประจําตัว	-9470
เที่ยวบิน	-9471
การออกอากาศ	-9472
เสียชีวิตในปี	-9473
▁ปรากฏ	-9474
จํานวนหนึ่ง	-9475
แอก	-9476
▁กฎหมาย	-9477
▁แต่เดิม	-9478
เดิร์นไนน์	-9479
ล์ม	-9480
▁inc	-9481
พรรคเพื่อไทย	-9482
▁จารุ	-9483
หน้าตา	-9484
เบียร์	-9485
การปล้ํา	-9486
▁แจ็กสัน	-9487
ตง	-9488
ชิป	-9489
บอร์	-9490
่ออก	-9491
▁rich	-9492
▁เครือ	-9493
ฉายาว่า	-9494
สิริกิติ์	-9495
ความเสี่ยง	-9496
ภค	-9497
ocal	-9498
ญจนา	-9499
เป่า	-9500
▁ฟัน	-9501
▁ถึงปี	-9502
ในขณะที่	-9503
พจนานุกรม	-9504
ซิงเกิลในสังกัด	-9505
ขจร	-9506
เหว	-9507
เฮล	-9508
ปัตตานี	-9509
▁และนาย	-9510
ร้อยเอ็ด	-9511
อนุสาวรีย์	-9512
ทิล	-9513
ทริกซ์	-9514
▁นางสาว	-9515
อาบ	-9516
ใช้กับ	-9517
▁000.0	-9518
▁และจาก	-9519
มุก	-9520
▁กระจ	-9521
▁ตะวัน	-9522
เวียงจันทน์	-9523
ความสามารถในการ	-9524
อร์นิง	-9525
ตลอดกาล	-9526
พระองค์ทรง	-9527
แม่น้ําโขง	-9528
▁มีรูปร่าง	-9529
ระบุรายละเอียด	-9530
เลค	-9531
อตต์	-9532
นี้ก็	-9533
นางงาม	-9534
▁เปิดตัว	-9535
เป็นพิเศษ	-9536
ในคริสต์ทศวรรษ	-9537
ets	-9538
▁*#	-9539
ลงโทษ	-9540
พราหมณ์	-9541
ส่วนผสม	-9542
แนวร่วม	-9543
ในสังคม	-9544
การประชุม	-9545
หม่อมเจ้า	-9546
มกุฎราชกุมาร	-9547
อัฟ	-9548
▁bus	-9549
▁ตรี	-9550
ather	-9551
การัง	-9552
สกลนคร	-9553
▁engine	-9554
สัตว์น้ํา	-9555
▁0000.00.00	-9556
นักวิทยาศาสตร์	-9557
ภาคตะวันออกเฉียง	-9558
กิล	-9559
▁fun	-9560
ซอฟท์	-9561
yr	-9562
cept	-9563
▁มุ่ง	-9564
แน่ชัด	-9565
▁00–00	-9566
ปฏิกรณ์	-9567
▁ที่ถูก	-9568
เช่นนั้น	-9569
▁สัญลักษณ์	-9570
▁association	-9571
ini	-9572
back	-9573
▁big	-9574
มาลัย	-9575
มิวสิค	-9576
วาดภาพ	-9577
วิศวกร	-9578
สืบสวน	-9579
กองกลาง	-9580
▁เปิดสอน	-9581
กาญจนบุรี	-9582
เซ็นเตอร์	-9583
▁โครงสร้าง	-9584
▁ประเทศอังกฤษ	-9585
ถานี	-9586
▁dem	-9587
▁แม็ก	-9588
วัคซีน	-9589
ในรุ่น	-9590
▁james	-9591
วต	-9592
itz	-9593
ปราช	-9594
วดาร	-9595
สตัน	-9596
หรี่	-9597
▁boy	-9598
▁เดล	-9599
▁เชิญ	-9600
ภิรมย์	-9601
ท่าไม้ตาย	-9602
บิ๊ก	-9603
ตัวตน	-9604
▁aust	-9605
ปลาน้ํา	-9606
ฆ่าตัวตาย	-9607
อย่างเดียว	-9608
นอล	-9609
love	-9610
ามาร	-9611
เครื่องดื่ม	-9612
เป็นเจ้าภาพ	-9613
ความช่วยเหลือ	-9614
นาบ	-9615
เล่	-9616
ider	-9617
มินิ	-9618
หมึก	-9619
กัลยา	-9620
ที่สะ	-9621
ปากกา	-9622
คิดถึง	-9623
ชื่นชม	-9624
เครื่องจักร	-9625
โถ	-9626
ตัก	-9627
▁jul	-9628
จิทัล	-9629
วินาที	-9630
ว่าเขา	-9631
และสามารถ	-9632
▁ประเทศจีน	-9633
ตามธรรมชาติ	-9634
▁เป็นประธาน	-9635
amb	-9636
หิมะ	-9637
ากอน	-9638
▁rel	-9639
▁ข้า	-9640
▁mart	-9641
อวอร์ด	-9642
มอเตอร์	-9643
▁ประการ	-9644
พระอิสริยยศ	-9645
ที่เกิดจากการ	-9646
พระบรมราชโองการ	-9647
gan	-9648
ents	-9649
▁สื่อ	-9650
▁manag	-9651
▁island	-9652
มีส่วนร่วม	-9653
▁ต่อมาเมื่อ	-9654
▁ปู	-9655
ชีวะ	-9656
้าระ	-9657
▁god	-9658
▁paul	-9659
ซัว	-9660
โงะ	-9661
inese	-9662
uth	-9663
กิจจ	-9664
ปราย	-9665
▁ทวีป	-9666
ดึงดูด	-9667
ปรัสเซีย	-9668
▁ภายใต้การ	-9669
ปฏิบัติหน้าที่	-9670
▁จด	-9671
adem	-9672
ประยูร	-9673
น้องสาว	-9674
กองทัพอากาศ	-9675
ครา	-9676
มีด	-9677
วลี	-9678
สมบท	-9679
แล้วย	-9680
โนเบล	-9681
ที่จัด	-9682
ยับยั้ง	-9683
▁แบ่งเป็น	-9684
รัฐมนตรีช่วย	-9685
▁ut	-9686
รณรงค์	-9687
▁cross	-9688
collapse	-9689
ในฤดูกาล	-9690
ตั้งครรภ์	-9691
ของราชวงศ์	-9692
▁เพื่อที่จะ	-9693
ดิก	-9694
▁ทู	-9695
▁bet	-9696
▁เลย	-9697
รากฐาน	-9698
สารคดี	-9699
▁white	-9700
รักษาประตู	-9701
อัครราชทูต	-9702
พยายามที่จะ	-9703
ฟอส	-9704
เทร	-9705
▁เผ	-9706
พร่อง	-9707
▁อยาก	-9708
สามก๊ก	-9709
เข้าชม	-9710
โดยบริษัท	-9711
กรรมาธิการ	-9712
บรรณาธิการ	-9713
ติง	-9714
▁had	-9715
ได้ไป	-9716
สีชมพู	-9717
าวเวอร์	-9718
แบ่งแยก	-9719
ปกครองตนเอง	-9720
โจโฉ	-9721
▁hot	-9722
▁ซาก	-9723
น้ําตก	-9724
สิบสอง	-9725
มหาย	-9726
รถถัง	-9727
มากถึง	-9728
อ่อนแอ	-9729
เสียใจ	-9730
▁ปีเดียวกัน	-9731
จล	-9732
หด	-9733
▁แดน	-9734
ให้ใช้	-9735
พระสงฆ์	-9736
ในภายหลัง	-9737
ดัล	-9738
ติส	-9739
▁อิต	-9740
ฮิโระ	-9741
เบกษา	-9742
สีม่วง	-9743
พระนามว่า	-9744
ยังสามารถ	-9745
awa	-9746
ima	-9747
sup	-9748
▁อัง	-9749
อเมริก	-9750
เกลียด	-9751
ไม่ยอม	-9752
ดูแลของ	-9753
▁(0000,	-9754
ที่ไม่ใช่	-9755
เรื่องราวของ	-9756
ประเทศญี่ปุ่น	-9757
▁๒๔	-9758
นี้เอง	-9759
▁under	-9760
ให้อยู่ใน	-9761
สามัญศึกษา	-9762
อภิเษกสมรส	-9763
atin	-9764
คั่ง	-9765
ปุระ	-9766
อ้อม	-9767
-00.00	-9768
ฝาผนัง	-9769
cc	-9770
alt	-9771
ัคฆ์	-9772
ฆาตกรรม	-9773
บุญธรรม	-9774
▁เดินทาง	-9775
สู้รบ	-9776
เวลล์	-9777
เกตบอล	-9778
▁คลื่น	-9779
▁โปรแกรม	-9780
ไนท์	-9781
กอล์ฟ	-9782
พิสัย	-9783
▁ศิลป	-9784
ในเชิง	-9785
▁สตาร์	-9786
ift	-9787
ิร์ด	-9788
พี่สาว	-9789
▁การทํา	-9790
กานิสถาน	-9791
ฟินแลนด์	-9792
กต	-9793
ani	-9794
part	-9795
urope	-9796
กันไป	-9797
สุสาน	-9798
มาเรีย	-9799
▁ศิษย์	-9800
กลับคืน	-9801
ฟรานซิส	-9802
มุซุเมะ	-9803
เดินทางมา	-9804
▁มหาวิหาร	-9805
ชัง	-9806
ราฟ	-9807
▁อิม	-9808
▁ฉัตร	-9809
▁ทํางาน	-9810
ภาษากรีก	-9811
▁0-	-9812
กดดัน	-9813
คนไข้	-9814
ันดับ	-9815
สุริยะ	-9816
สระบุรี	-9817
ไตรปิฎก	-9818
จูเนียร์	-9819
▁เมื่อเดือน	-9820
ench	-9821
เช็ก	-9822
▁iii	-9823
▁อาย	-9824
world	-9825
▁เกียรติ	-9826
โรคมะเร็ง	-9827
ปฏิบัติงาน	-9828
พระราชบิดา	-9829
เจ้าอาวาสวัด	-9830
▁*0000.00.00	-9831
▁sn	-9832
▁ทรั	-9833
เพดาน	-9834
ถูกส่ง	-9835
▁''000	-9836
▁ซีรีส์	-9837
กาฬสินธุ์	-9838
ภาษาละติน	-9839
แล้วเสร็จ	-9840
▁หมู่เกาะ	-9841
ude	-9842
ลอร์ด	-9843
สมาธิ	-9844
ไว้ได้	-9845
เจ้าพระ	-9846
ami	-9847
คลาน	-9848
ถล่ม	-9849
▁bur	-9850
▁ลิน	-9851
แควร์	-9852
ในบ้าน	-9853
ร่วมสมัย	-9854
ในอังกฤษ	-9855
▁โรเบิร์ต	-9856
กันว่าเป็น	-9857
▁๔	-9858
aya	-9859
จุน	-9860
hedr	-9861
บดิน	-9862
แรกๆ	-9863
▁brit	-9864
▁สถิติ	-9865
โนเสาร์	-9866
▁เข้ามา	-9867
เป็นเส้น	-9868
ตัง	-9869
โหด	-9870
ournal	-9871
ที่ราบ	-9872
แรกคือ	-9873
▁โดยปกติ	-9874
▁ดยุกแห่ง	-9875
▁เจ้าเมือง	-9876
ape	-9877
ซูล	-9878
วัลย์	-9879
ที่นี่	-9880
▁เฉลิม	-9881
แต่ละคน	-9882
▁background	-9883
ิจูด	-9884
ีน่า	-9885
กิจจานุ	-9886
กันในชื่อ	-9887
เนื่องมาจาก	-9888
วงการบันเทิง	-9889
ธรรมา	-9890
▁ระยะ	-9891
ขั้นพื้นฐาน	-9892
▁อําเภอบ้าน	-9893
mag	-9894
เตา	-9895
เซนอล	-9896
▁roman	-9897
โซ่	-9898
ถ่าน	-9899
ปาเล	-9900
ละเม	-9901
▁jun	-9902
เนปาล	-9903
▁คุณหญิง	-9904
ช่วยในการ	-9905
ลูกด้วยนม	-9906
เป็นเพียง	-9907
องค์กรปกครอง	-9908
acy	-9909
▁--	-9910
▁dou	-9911
เทวดา	-9912
โคลัม	-9913
ภูมิใจ	-9914
▁การจัด	-9915
อย่างสูง	-9916
เรื่องสั้น	-9917
ออม	-9918
star	-9919
▁อับ	-9920
สัตย์	-9921
ในป่า	-9922
ประจวบ	-9923
▁elect	-9924
อาชญากรรม	-9925
เป็นกลุ่ม	-9926
หม่อมราชวงศ์	-9927
ขึ้นเมื่อวันที่	-9928
▁เดน	-9929
สันต์	-9930
แกล้ง	-9931
ผูกพัน	-9932
▁ทางด้าน	-9933
ยุทธศาสตร์	-9934
▁สก	-9935
burg	-9936
คาถา	-9937
สยอง	-9938
กระจุก	-9939
ไปอย่าง	-9940
▁ออกอากาศทุกวัน	-9941
ยอน	-9942
ู้ด	-9943
กลอน	-9944
▁::*	-9945
โยต้า	-9946
▁match	-9947
ความลับ	-9948
มาสเตอร์	-9949
อยู่ด้วย	-9950
เม็ดเลือด	-9951
บทประพันธ์	-9952
และวัฒนธรรม	-9953
ยิด	-9954
ปั่น	-9955
แม่นยํา	-9956
▁เนื้อหา	-9957
เมรุ	-9958
อาร์ม	-9959
▁ทว่า	-9960
▁ทีวี	-9961
ต้องมี	-9962
เสรีภาพ	-9963
รูปแบบของ	-9964
istr	-9965
▁ควบ	-9966
▁bang	-9967
▁blue	-9968
▁ระหว่างปี	-9969
พระบรมราชูปถัมภ์	-9970
cer	-9971
มิช	-9972
าก้อน	-9973
▁ลิตร	-9974
ของนาง	-9975
คนสําคัญ	-9976
อยู่ระหว่าง	-9977
ลาง	-9978
แกม	-9979
แฝง	-9980
ควาย	-9981
สร้อย	-9982
เหย้า	-9983
bridge	-9984
ชนชั้น	-9985
ใหม่อีก	-9986
ไรก็ตาม	-9987
▁ตํานาน	-9988
▁ปีเตอร์	-9989
▁จักรวรรดิ	-9990
การก่อสร้าง	-9991
อุดมสมบูรณ์	-9992
▁เป็นรายการ	-9993
คงที่	-9994
▁last	-9995
▁เซลล์	-9996
กุง	-9997
ณัฐ	-9998
แบง	-9999
▁ca	-10000
▁ปก	-10001
กันของ	-10002
คคอร์ด	-10003
sl	-10004
ถก	-10005
เนน	-10006
▁she	-10007
▁มอง	-10008
▁สระ	-10009
ดีขึ้น	-10010
▁อนึ่ง	-10011
แนวโน้ม	-10012
ผู้ครองนคร	-10013
มนุษยศาสตร์	-10014
ied	-10015
ning	-10016
orge	-10017
อิสร	-10018
▁serv	-10019
▁text	-10020
เลี่ยน	-10021
▁อินโด	-10022
ก็เริ่ม	-10023
ค่ายเพลง	-10024
ก่อการร้าย	-10025
▁มีหน้าที่	-10026
คอส	-10027
ปิต	-10028
▁mor	-10029
▁vir	-10030
แบนด์	-10031
▁album	-10032
▁หนุ่ม	-10033
เสนาบดี	-10034
ได้พบกับ	-10035
▁และอดีต	-10036
ประสานงาน	-10037
ซุป	-10038
เปา	-10039
เจได	-10040
▁two	-10041
▁ใส่	-10042
ราม่า	-10043
สวัสดิ	-10044
ภาคกลาง	-10045
พิธีเปิด	-10046
▁มหาสมุทร	-10047
พระราชวงศ์	-10048
สุวรรณภูมิ	-10049
ากี	-10050
ople	-10051
▁ซิน	-10052
ยูฟ่า	-10053
พักตร์	-10054
เป็นชาว	-10055
ฤดูใบไม้	-10056
ได้รับบาดเจ็บ	-10057
มหาน	-10058
หยวน	-10059
เชือก	-10060
คนใหม่	-10061
ควันโด	-10062
ในทะเล	-10063
จริงจัง	-10064
ของเรื่อง	-10065
ภาพยนตร์ที่มีฉาก	-10066
ภัส	-10067
สโล	-10068
ฮับ	-10069
▁sk	-10070
ังคม	-10071
▁กฤษ	-10072
นายทหาร	-10073
ลูกน้อง	-10074
ประกาศว่า	-10075
สื่อมวลชน	-10076
ครั้งหนึ่ง	-10077
บังคับบัญชา	-10078
ข่ม	-10079
ช่า	-10080
ดิล	-10081
▁แช	-10082
สัตว	-10083
earch	-10084
▁light	-10085
กิจจานุเบกษา	-10086
ที่อยู่อาศัย	-10087
aka	-10088
▁mr	-10089
ปิ่น	-10090
ขั้นตอนวิธี	-10091
ที่เกี่ยวกับ	-10092
aki	-10093
omb	-10094
ไคร	-10095
ยูนิ	-10096
▁กัล	-10097
นิทรรศ	-10098
สาหกิจ	-10099
ได้ทรง	-10100
ไม่พอใจ	-10101
บาร์เซโลนา	-10102
ความแตกต่าง	-10103
บิก	-10104
ปลง	-10105
แย่	-10106
ปรีชา	-10107
▁young	-10108
▁เป็นเวลา	-10109
▁อําเภอบาง	-10110
ซัก	-10111
บัม	-10112
ในญี่ปุ่น	-10113
เป็นผู้นํา	-10114
ในการเลือกตั้ง	-10115
▁บรู	-10116
ทาวน์	-10117
สมรรถ	-10118
▁video	-10119
▁มาเรีย	-10120
ที่ตั้งของ	-10121
▁นักฟุตบอล	-10122
อค	-10123
๊ง	-10124
udd	-10125
หรู	-10126
▁ฟู	-10127
สิบปี	-10128
▁ออร์	-10129
ไหลผ่าน	-10130
ทุกวันนี้	-10131
ตรงกันข้าม	-10132
yo	-10133
คีน	-10134
ัชนี	-10135
ูปแบบ	-10136
กล่าวหา	-10137
วอชิงตัน	-10138
▁หม่อมหลวง	-10139
ala	-10140
▁แน	-10141
ไรด์	-10142
รบกวน	-10143
สม่ํา	-10144
กันมาก	-10145
ศาวดาร	-10146
▁0000;	-10147
วุ่นวาย	-10148
▁0000).	-10149
▁เยอรมนี	-10150
สูงสุดของ	-10151
โบราณสถาน	-10152
ho	-10153
pa	-10154
ตามแบบ	-10155
▁มาเป็น	-10156
บูลสงคราม	-10157
|“	-10158
นารี	-10159
กลางคืน	-10160
ต้อนรับ	-10161
การทํางานของ	-10162
ียณ	-10163
book	-10164
แว่น	-10165
์ตูน	-10166
แม้ว่า	-10167
▁เอิร์ล	-10168
จอมเกล้า	-10169
เมืองไทย	-10170
▁special	-10171
▁ไม่สามารถ	-10172
เปญ	-10173
▁ซิ	-10174
มีอายุ	-10175
▁เชื่อม	-10176
osa	-10177
ภาส	-10178
ปริม	-10179
อกซ์	-10180
ต่อปี	-10181
▁วงษ์	-10182
นาฬิกา	-10183
อุปสรรค	-10184
▁เป็นปี	-10185
▁ใช้ชื่อ	-10186
เทส	-10187
แพล	-10188
ภคินี	-10189
ไม่รู้	-10190
▁สาขาส	-10191
▁เทียน	-10192
ไพบูลย์	-10193
▁อย่างเช่น	-10194
โทน	-10195
ปราศ	-10196
▁รัช	-10197
▁เสมอ	-10198
ตัวที่	-10199
ปานกลาง	-10200
▁หลวงพ่อ	-10201
บริหารงาน	-10202
สถานศึกษา	-10203
เวก	-10204
โน่	-10205
▁มอ	-10206
▁บิล	-10207
แสตมป์	-10208
วันเสาร์	-10209
▁ในรัชสมัย	-10210
ัตน	-10211
▁ฮี	-10212
▁เรียง	-10213
▁หลุยส์	-10214
เซลเซียส	-10215
บัณฑิตยสถาน	-10216
ทีฟ	-10217
เทเชีย	-10218
ทําประตู	-10219
ธยมศึกษา	-10220
▁สุดท้าย	-10221
แขกรับเชิญ	-10222
ายกรัฐมนตรี	-10223
cd	-10224
คัง	-10225
ั๊ก	-10226
illa	-10227
▁san	-10228
มาให้	-10229
▁เรือง	-10230
เอนไซม์	-10231
มีจํานวน	-10232
วิสาหกิจ	-10233
น่าจะเป็น	-10234
ittle	-10235
ตะกอน	-10236
ออตโต	-10237
ที่ยิ่ง	-10238
ขง	-10239
ats	-10240
oice	-10241
▁prof	-10242
นักบิน	-10243
ยอดฟ้า	-10244
ี๊	-10245
ump	-10246
ัตถ	-10247
ฤทัย	-10248
แบนตัม	-10249
▁เมล็ด	-10250
▁collapse	-10251
ครั้งเดียว	-10252
พลังประชาชน	-10253
สนับสนุนการ	-10254
โสม	-10255
▁*"	-10256
แท่ง	-10257
ค้นคว้า	-10258
ye	-10259
จิง	-10260
ียะ	-10261
ในชั้น	-10262
▁เฟอร์	-10263
▁ในรอบ	-10264
จุดเด่น	-10265
▁*0000:	-10266
fin	-10267
แคลน	-10268
velop	-10269
คุกคาม	-10270
มั่นใจ	-10271
ศึกษาส	-10272
ออฟเดอะ	-10273
ชิงแชมป์แห่งชาติ	-10274
ดรู	-10275
▁0;	-10276
ใต้น	-10277
▁*0.	-10278
บล็อก	-10279
▁road	-10280
อัยการ	-10281
▁ดินแดน	-10282
เชื่อถือ	-10283
▁ฉบับที่	-10284
รักษาความสงบ	-10285
ซาล	-10286
ทะลุ	-10287
ของน้ํา	-10288
พระราชธิดา	-10289
▁ฟุ	-10290
สนาน	-10291
▁asia	-10292
▁มารี	-10293
มุ่งหมาย	-10294
สันติภาพ	-10295
ึม	-10296
บาศ	-10297
รอส	-10298
vers	-10299
พ้อง	-10300
▁wbc	-10301
แต่ก็	-10302
▁แต่ต่อมา	-10303
ที่เก่าแก่	-10304
▁ที่สามารถ	-10305
ago	-10306
เซะ	-10307
ปลุก	-10308
ภาระ	-10309
สุขา	-10310
iness	-10311
ให้ไป	-10312
▁เธอก	-10313
น้ําเงิน	-10314
cus	-10315
ดร์	-10316
บรรณ	-10317
anger	-10318
อุทัย	-10319
▁จึงเป็น	-10320
กิตติมศักดิ์	-10321
มีประสิทธิภาพ	-10322
สมเด็จพระนางเจ้า	-10323
ขระ	-10324
ิร์ธ	-10325
เลือ	-10326
ถัดไป	-10327
ระฆัง	-10328
สุลต่าน	-10329
▁วิศวกรรม	-10330
ไต่	-10331
แม็ก	-10332
▁ทรงเป็น	-10333
นิทรรศการ	-10334
▁กระบวนการ	-10335
ible	-10336
ปริย	-10337
▁กรณี	-10338
▁รหัส	-10339
▁เรย์	-10340
▁สังคม	-10341
เหรี่ยง	-10342
ทิศเหนือ	-10343
รวมไปถึง	-10344
เรื่อยมา	-10345
ที่สุดคือ	-10346
สรรพสินค้า	-10347
อร์นิงมุซุเมะ	-10348
ธีก	-10349
ือย	-10350
ense	-10351
▁มุม	-10352
ทุจริต	-10353
ชาร์ลส์	-10354
นิจ	-10355
แนวน	-10356
▁cur	-10357
เบรียล	-10358
องค์ชาย	-10359
▁ทําการ	-10360
▁หลังการ	-10361
ทวีปยุโรป	-10362
เกมสําหรับ	-10363
ภายในประเทศ	-10364
▁ผู้บัญชาการ	-10365
ตะวันตกเฉียงใต้	-10366
ในสหราชอาณาจักร	-10367
ฮิล	-10368
ีนี	-10369
สลาก	-10370
▁กรมพระ	-10371
เพื่อนสนิท	-10372
bi	-10373
จบลง	-10374
อายุน	-10375
ในแถบ	-10376
▁กลอง	-10377
▁แผนก	-10378
ภาครัฐ	-10379
คัดค้าน	-10380
เกิดเป็น	-10381
บว	-10382
หวน	-10383
size	-10384
เอฟซี	-10385
▁เล่า	-10386
ขัดขวาง	-10387
บังคับการ	-10388
ขึ้นทะเบียน	-10389
ในประเทศจีน	-10390
ควีน	-10391
จิ้ง	-10392
▁tem	-10393
มาแต่	-10394
เบี้ย	-10395
▁เปลือก	-10396
ชิ้นส่วน	-10397
ศาสนสถาน	-10398
▁เว็บไซต์	-10399
เพื่อนร่วม	-10400
▁jr	-10401
พอดี	-10402
ระวัง	-10403
▁ก็มี	-10404
พยากรณ์	-10405
▁society	-10406
พระองค์เจ้า	-10407
งก	-10408
เจียน	-10409
▁มนต์	-10410
▁college	-10411
ประเทศจีน	-10412
วิพากษ์วิจารณ์	-10413
ตเต	-10414
iang	-10415
ยุ่ง	-10416
เค็ม	-10417
0000.	-10418
บรรพ์	-10419
ที่พบใน	-10420
เรื่องที่	-10421
ประจําชาติ	-10422
▁วัย	-10423
เชียล	-10424
และให้	-10425
▁green	-10426
▁order	-10427
ดิจิทัล	-10428
▁single	-10429
▁ในภาษา	-10430
ทําให้เกิดการ	-10431
!''	-10432
▁way	-10433
ของปี	-10434
ฮาวาย	-10435
ได้ส่ง	-10436
▁ปัญหา	-10437
กองทหาร	-10438
ที่ระลึก	-10439
หมวดหมู่	-10440
▁english	-10441
รับบทเป็น	-10442
รายงานว่า	-10443
กรุงธนบุรี	-10444
▁เกี่ยวกับ	-10445
▁สําเร็จการศึกษา	-10446
หนาน	-10447
ันติ	-10448
ister	-10449
▁ในบาง	-10450
▁รายงาน	-10451
เข้าร่วมกับ	-10452
▁สําหรับการ	-10453
ola	-10454
พัท	-10455
ปล้น	-10456
▁kar	-10457
▁ลิง	-10458
▁แชม	-10459
คณบดี	-10460
ดุริย	-10461
ยินดี	-10462
เทพศิ	-10463
เชื่อมต่อกับ	-10464
สาป	-10465
ของพืช	-10466
ชนเผ่า	-10467
▁สหภาพ	-10468
ดําน้ํา	-10469
เนื้อร้อง	-10470
aph	-10471
ales	-10472
โซมา	-10473
▁mot	-10474
ขับรถ	-10475
ตนาการ	-10476
▁ติดกับ	-10477
▁แกรนด์	-10478
ในรัชสมัย	-10479
พุทธศักราช	-10480
ระดับน้ําทะเล	-10481
▁ลด	-10482
คาโก	-10483
ทวาร	-10484
ผลึก	-10485
สถิต	-10486
▁บอย	-10487
หมั้น	-10488
ในไทย	-10489
▁เผ่า	-10490
เกิร์ล	-10491
คนอื่นๆ	-10492
ประศาสน	-10493
▁ไปจนถึง	-10494
กระแสไฟฟ้า	-10495
ตัวอย่างเช่น	-10496
ที่ได้รับรางวัล	-10497
ที่เป็นที่รู้จัก	-10498
ja	-10499
เอม	-10500
โอบ	-10501
นักรบ	-10502
▁แต่ท	-10503
แบบนี้	-10504
ล้อมรอบ	-10505
เลียนแบบ	-10506
▁อินเดีย	-10507
ของตระกูล	-10508
เทอ	-10509
ซาเล	-10510
เซ็ก	-10511
▁คาด	-10512
▁เรียน	-10513
▁แมทช์	-10514
โปเกมอน	-10515
เป็นอย่างดี	-10516
▁na	-10517
▁ele	-10518
ใหญ่อ	-10519
▁คารา	-10520
margin	-10521
ชั้นที่	-10522
หน้ากาก	-10523
ในโอกาส	-10524
▁airport	-10525
คําร้องโดย	-10526
▁ให้บริการ	-10527
แต่ไม่สําเร็จ	-10528
▁ประกอบไปด้วย	-10529
ซาย	-10530
ลุย	-10531
itch	-10532
รุ้ง	-10533
▁แอม	-10534
▁stand	-10535
▁ในปีพ	-10536
ดําบรรพ์	-10537
ราชาภิเษก	-10538
ฟัก	-10539
สท์	-10540
บาตร	-10541
▁โคน	-10542
ional	-10543
โปร่ง	-10544
▁down	-10545
▁ย้าย	-10546
▁เฉพาะ	-10547
▁องค์กร	-10548
แห่งราชวงศ์	-10549
era	-10550
▁ออ	-10551
ยงค์	-10552
▁ฉาย	-10553
นั้นก็	-10554
▁teams	-10555
▁จะถูก	-10556
ก่อนที่	-10557
ของภาษา	-10558
ร้ายแรง	-10559
ข้างหน้า	-10560
แห่งหนึ่งใน	-10561
▁มีความสามารถ	-10562
ว่าราชการจังหวัด	-10563
zy	-10564
บ์	-10565
reen	-10566
พลับ	-10567
ากรร	-10568
ลําต้น	-10569
ของพระนาง	-10570
อยู่ภายใต้	-10571
พระจอมเกล้า	-10572
อายุไม่เกิน	-10573
ua	-10574
หยาง	-10575
โยธา	-10576
บรรจบ	-10577
หายาก	-10578
▁0.000	-10579
ทางทะเล	-10580
ติดอันดับ	-10581
▁research	-10582
▁ได้รับพระราชทาน	-10583
คัล	-10584
ฝัก	-10585
john	-10586
▁flag	-10587
บทเพลง	-10588
ography	-10589
ศักยภาพ	-10590
▁และที่	-10591
ของเซลล์	-10592
ส่งผลให้	-10593
ได้รับการยอมรับ	-10594
ดอม	-10595
ริญญ	-10596
▁มอน	-10597
วน้ํา	-10598
ฮาร์ด	-10599
ทั้งปวง	-10600
นั้นเอง	-10601
▁บันทึก	-10602
ส่วนร่วม	-10603
)0	-10604
ฮก	-10605
หมี	-10606
หอก	-10607
โด้	-10608
▁พนม	-10609
ั่งยืน	-10610
ลงคะแนน	-10611
วินโดวส์	-10612
เป็นประธาน	-10613
▁องศาเซลเซียส	-10614
aba	-10615
ely	-10616
mus	-10617
rad	-10618
แคท	-10619
ย็อน	-10620
ียัง	-10621
ผลผลิต	-10622
▁0000(	-10623
▁model	-10624
ทั้งสี่	-10625
ความหวัง	-10626
อารยธรรม	-10627
▁ตารางวา	-10628
▁พระโอรส	-10629
ประกอบการ	-10630
ภูมิทัศน์	-10631
แบนตัมเวท	-10632
พก	-10633
รัณ	-10634
มาดริด	-10635
▁ตําบลบาง	-10636
kh	-10637
ฟิลด์	-10638
ของเกม	-10639
ได้ตาม	-10640
▁พันล้าน	-10641
▁division	-10642
วงศานุวงศ์	-10643
▁ในตําแหน่ง	-10644
▁๕	-10645
ซึ้ง	-10646
พพาน	-10647
ผลลัพธ์	-10648
▁สาเหตุ	-10649
▁อิตาลี	-10650
▁ใช้เป็น	-10651
va	-10652
กฤษ	-10653
เงะ	-10654
ston	-10655
▁จันทร	-10656
ออกมาเป็น	-10657
กระดูกสันหลัง	-10658
▁gm	-10659
ชันษา	-10660
ของเด็ก	-10661
ที่ผลิต	-10662
สมุนไพร	-10663
▁กิจกรรม	-10664
เกียรติคุณ	-10665
เขตพื้นที่	-10666
ดึกดําบรรพ์	-10667
ato	-10668
ids	-10669
กรวย	-10670
▁หนู	-10671
จิจูด	-10672
▁ปกติ	-10673
ทรงกลม	-10674
สําราญ	-10675
▁ได้นํา	-10676
กัว	-10677
▁สร	-10678
อสูร	-10679
▁west	-10680
▁มอร์	-10681
ของเพลง	-10682
ฮอร์โมน	-10683
ตลอดทั้ง	-10684
คณา	-10685
ฝาง	-10686
พาด	-10687
ริล	-10688
▁ละ	-10689
ough	-10690
กงสุล	-10691
เกษียณ	-10692
เสี้ยว	-10693
▁000.00	-10694
แบบจําลอง	-10695
แชมเปียนส์ลีก	-10696
ียู	-10697
เกรก	-10698
เจ้าร	-10699
แต่เพียง	-10700
▁มีเนื้อที่	-10701
ที่มีชื่อว่า	-10702
มิง	-10703
▁tow	-10704
ating	-10705
▁อวอร์ด	-10706
มีการเปลี่ยนแปลง	-10707
กถา	-10708
ซุง	-10709
พาล	-10710
ฮาน	-10711
ระงับ	-10712
หลั่ง	-10713
พวกมัน	-10714
ประพฤติ	-10715
ปริมณฑล	-10716
เลี้ยงดู	-10717
และดินแดน	-10718
ฉะเชิงเทรา	-10719
sk	-10720
ุค	-10721
แจง	-10722
แซก	-10723
แจ่ม	-10724
▁ann	-10725
▁jan	-10726
▁ดาร	-10727
ราวุธ	-10728
ได้ให้	-10729
ความตาย	-10730
เป็นอัน	-10731
อาหารและ	-10732
ดาวน์โหลด	-10733
นิสิตเก่า	-10734
на	-10735
▁→	-10736
ยิม	-10737
ซ็อง	-10738
▁est	-10739
แล้วน	-10740
โรแมน	-10741
▁แต่เป็น	-10742
แห่งสหประชาชาติ	-10743
olf	-10744
ยาร	-10745
อมรับ	-10746
ไอออน	-10747
็อด	-10748
ยะลา	-10749
เอิญ	-10750
แมรี	-10751
▁พรี	-10752
▁ทักษ	-10753
ลําไส้	-10754
▁famil	-10755
▁เหนือ	-10756
▁ไมโคร	-10757
กันอยู่	-10758
ปะการัง	-10759
▁เวิลด์	-10760
กาจ	-10761
fran	-10762
ารัฐ	-10763
กําไร	-10764
ต้าร์	-10765
หนีไป	-10766
ในขณะ	-10767
ปราชญ์	-10768
เพื่อใช้	-10769
โปรดเกล้า	-10770
▁และมีความ	-10771
ศูนย์การค้า	-10772
▁ปีก่อนคริสตกาล	-10773
''"	-10774
กระเป	-10775
เหนือและ	-10776
ในการใช้	-10777
▁พร้อมด้วย	-10778
oku	-10779
ula	-10780
แชน	-10781
ไธย	-10782
ากัน	-10783
▁dig	-10784
ดิเรก	-10785
ระยอง	-10786
▁สเปน	-10787
ละเมิด	-10788
▁ประโยค	-10789
อธิบดีกรม	-10790
อัลบั้มที่	-10791
ประกอบอาชีพ	-10792
การ์ตูนญี่ปุ่น	-10793
▁ในการเลือกตั้ง	-10794
คาง	-10795
ชิม	-10796
▁ni	-10797
▁men	-10798
▁ตรง	-10799
กระบวน	-10800
ของวัด	-10801
ตัวนํา	-10802
ถนนสาย	-10803
รสชาติ	-10804
กองหน้า	-10805
เดินเรือ	-10806
จากเรื่อง	-10807
สม่ําเสมอ	-10808
อย่างอื่น	-10809
▁ในเรื่อง	-10810
อัฟกานิสถาน	-10811
ได้รับเลือกตั้ง	-10812
pos	-10813
ดาส	-10814
เกง	-10815
โน้ต	-10816
ไหว้	-10817
ได้กับ	-10818
ที่กรุง	-10819
▁ผู้ซึ่ง	-10820
▁ผู้จัดการ	-10821
นําไปสู่การ	-10822
พระชนมพรรษา	-10823
ได้รับตําแหน่ง	-10824
ee	-10825
วีระ	-10826
ในชุด	-10827
คําสอน	-10828
ตอบแทน	-10829
เคลือบ	-10830
ของสมาคม	-10831
▁เพลงนี้	-10832
มีประชากร	-10833
เทียบเท่า	-10834
เซ็นสัญญากับ	-10835
ี้ด	-10836
โน้มถ่วง	-10837
เดินทางไปยัง	-10838
▁โรงเรียนวัด	-10839
za	-10840
นง	-10841
spe	-10842
ซาร	-10843
เซอ	-10844
▁ผี	-10845
โกลด์	-10846
พูดถึง	-10847
โดยตลอด	-10848
ข้าราชการพลเรือน	-10849
fa	-10850
ban	-10851
▁phy	-10852
สุเกะ	-10853
▁hand	-10854
ชั้นใน	-10855
ที่พัก	-10856
หมู่ที่	-10857
อีกครั้งหนึ่ง	-10858
ไอด	-10859
ญจน์	-10860
สปอร์ต	-10861
เคลียร์	-10862
รุ่นใหม่	-10863
▁และยังเป็น	-10864
▁let	-10865
▁กัม	-10866
กลั่น	-10867
ในปีค	-10868
กระเพาะ	-10869
เก็บน้ํา	-10870
ปลัดกระทรวง	-10871
war	-10872
ทูน	-10873
ห่อ	-10874
แมก	-10875
ร่อน	-10876
อุปสมบท	-10877
กระหม่อม	-10878
▁การสร้าง	-10879
▁с	-10880
มูน	-10881
▁mir	-10882
เวทย์	-10883
เศรษฐี	-10884
ไม่ถึง	-10885
ขยายตัว	-10886
ถกเถียง	-10887
ทํางานใน	-10888
รอดชีวิต	-10889
ว่าด้วยการ	-10890
ลักเซมเบิร์ก	-10891
▁สิ้นพระชนม์	-10892
uel	-10893
มีน	-10894
iant	-10895
▁คอล	-10896
ทาโร่	-10897
▁ซึ่งการ	-10898
ในครอบครัว	-10899
▁เมืองหลวง	-10900
เพียงคนเดียว	-10901
ไบร	-10902
ring	-10903
อร่า	-10904
▁อัศ	-10905
ของเอ	-10906
▁russ	-10907
▁จอมพล	-10908
▁เที่ยว	-10909
ในช่วงปี	-10910
▁มาเลเซีย	-10911
▁institute	-10912
▁wa	-10913
แนวด	-10914
เรียม	-10915
ให้เขา	-10916
-00000-000	-10917
▁fri	-10918
▁ริม	-10919
โกสลา	-10920
ยกฐานะ	-10921
ดีเอ็นเอ	-10922
▁•	-10923
พระครู	-10924
พูดภาษา	-10925
น้ําท่วม	-10926
ประกาศผล	-10927
คีรีขันธ์	-10928
ทางการเงิน	-10929
ออกอากาศทาง	-10930
▁00.00-00.00	-10931
ชู้	-10932
สตี	-10933
ฮิป	-10934
ุ้ม	-10935
เทีย	-10936
▁lib	-10937
▁thom	-10938
▁บิ๊ก	-10939
▁เรือน	-10940
▁ฉะนั้น	-10941
▁วัดป่า	-10942
กําลังใจ	-10943
▁จัดอยู่ใน	-10944
ci	-10945
aaa	-10946
พ่น	-10947
▁สึ	-10948
กติก	-10949
โคโล	-10950
ในทุก	-10951
การให้	-10952
สามเณร	-10953
ขนาดของ	-10954
ฉบับที่	-10955
วันศุกร์	-10956
เทควันโด	-10957
▁ในชาร์ต	-10958
กําแพงเพชร	-10959
กลู	-10960
ฟีน	-10961
แก่ง	-10962
▁สี่	-10963
▁โอล	-10964
เซาท์	-10965
▁they	-10966
นําของ	-10967
▁girls	-10968
บ้านเกิด	-10969
บัลแกเรีย	-10970
ไดโนเสาร์	-10971
ชาติพันธุ์	-10972
ในช่วงเวลา	-10973
ในการต่อสู้	-10974
ประจําสํานัก	-10975
ระบบปฏิบัติการ	-10976
▁ol	-10977
ภิไธย	-10978
เอื้อ	-10979
▁ปรับ	-10980
พัทลุง	-10981
เสน่ห์	-10982
▁ในวงศ์	-10983
▁หิน	-10984
▁แถบ	-10985
หันมา	-10986
เองก็	-10987
ได้จัด	-10988
ได้ยาก	-10989
▁เปอร์	-10990
▁แต่ยัง	-10991
rh	-10992
ศุ	-10993
ipt	-10994
ชุก	-10995
▁ho	-10996
▁mad	-10997
▁maj	-10998
▁fest	-10999
▁open	-11000
ทีมที่	-11001
ในสาขา	-11002
▁อุทยานแห่งชาติ	-11003
▁−	-11004
mad	-11005
ots	-11006
ไฮ้	-11007
▁tur	-11008
▁กว่า	-11009
ที่อําเภอ	-11010
นิวเคลียส	-11011
▁แต่อย่าง	-11012
ต้อ	-11013
ฝนตก	-11014
▁ไบร	-11015
ดวงดาว	-11016
บริติช	-11017
ในเพลง	-11018
ification	-11019
▁ราชอาณาจักร	-11020
▁ray	-11021
▁ดาบ	-11022
ฝ่ายใน	-11023
ทางเคมี	-11024
▁ร้อยละ	-11025
คุ้งตะเภา	-11026
ครั้งที่หนึ่ง	-11027
▁ตรงกับวันที่	-11028
ขม	-11029
ฟิว	-11030
ูลู	-11031
นุษย	-11032
▁ทัน	-11033
▁ใต้	-11034
▁บ้าง	-11035
อบอุ่น	-11036
▁remix	-11037
จากเมือง	-11038
▁develop	-11039
บุคคลจากรัฐ	-11040
เดา	-11041
ากรุ	-11042
▁ครี	-11043
▁สมิ	-11044
โมโตะ	-11045
พูดคุย	-11046
▁มารดา	-11047
▁network	-11048
ชื่อเรียก	-11049
ด้วยอักษร	-11050
▁ดับเบิลยู	-11051
ความคิดเห็น	-11052
ote	-11053
▁our	-11054
▁วิก	-11055
▁อุณห	-11056
▁ตํารวจ	-11057
ในตํานาน	-11058
การออกแบบ	-11059
จินตนาการ	-11060
เข้าใจผิด	-11061
ทํางานเป็น	-11062
แทนพระองค์	-11063
บีบ	-11064
ิ้ว	-11065
ไห้	-11066
▁0%	-11067
ดมิน	-11068
▁ราม	-11069
▁(0.0	-11070
▁head	-11071
▁list	-11072
ปริยัติ	-11073
ผู้ผลิต	-11074
อาร์เอส	-11075
ทีมฟุตบอล	-11076
▁ฐ	-11077
เคม	-11078
แลม	-11079
rich	-11080
ินซ์	-11081
เสวย	-11082
public	-11083
นัดที่	-11084
ด้วยเช่นกัน	-11085
คันธ	-11086
▁max	-11087
ฟิลิป	-11088
นําเข้า	-11089
อินโดจีน	-11090
หลุยส์ที่	-11091
เสร็จสิ้น	-11092
ที่โดดเด่น	-11093
นักร้องไทย	-11094
ความเป็นจริง	-11095
▁เครื่องยนต์	-11096
ปอ	-11097
าลิ	-11098
ugust	-11099
พเจ้า	-11100
▁dire	-11101
▁นันท	-11102
ยูเครน	-11103
เพิ่มความ	-11104
ูบ	-11105
aku	-11106
เฮาส์	-11107
่อยาก	-11108
จีนบุรี	-11109
บาทหลวง	-11110
จอร์เจีย	-11111
ทราบรมราช	-11112
พระจันทร์	-11113
ของทั้งสอง	-11114
สังเกตการณ์	-11115
เมื่อเทียบกับ	-11116
▁มีลักษณะเป็น	-11117
คุน	-11118
ธัญ	-11119
▁ซะ	-11120
โฟร์	-11121
▁von	-11122
ที่ยาว	-11123
ทําจาก	-11124
ทํานาย	-11125
จะไม่มี	-11126
เล่นเกม	-11127
จะมีความ	-11128
eth	-11129
เมอ	-11130
▁#00	-11131
▁โยะ	-11132
▁cour	-11133
อนุกรม	-11134
มีอาการ	-11135
สื่อข่าว	-11136
อย่างชัดเจน	-11137
▁0000–0000)	-11138
นี้จึง	-11139
สํานึก	-11140
ื้องอก	-11141
▁เมอร์	-11142
พลาสติก	-11143
▁public	-11144
ขนาดกลาง	-11145
เผ่าพันธุ์	-11146
นาก	-11147
▁รอ	-11148
▁ขนม	-11149
annel	-11150
คาร์ล	-11151
ยากจน	-11152
▁party	-11153
เข้มแข็ง	-11154
▁ริชาร์ด	-11155
หลอม	-11156
เคร่ง	-11157
ประหยัด	-11158
▁master	-11159
▁publish	-11160
▁ซึ่งถูก	-11161
โกสลาเวีย	-11162
และสิ่งแวดล้อม	-11163
ops	-11164
พัล	-11165
หยก	-11166
ไมล์	-11167
▁tit	-11168
กะโหลก	-11169
พบเห็น	-11170
วางไข่	-11171
หนึ่งคน	-11172
▁อาจหมายถึง	-11173
▁หรือที่รู้จัก	-11174
mas	-11175
เล็	-11176
▁คม	-11177
▁mel	-11178
แห่งรัฐ	-11179
▁(0,000	-11180
พงศาวดาร	-11181
ใหญ่อยู่	-11182
▁แต่กลับ	-11183
อําเภอบาง	-11184
ในการผลิต	-11185
omy	-11186
uki	-11187
สมร	-11188
iple	-11189
ural	-11190
คาเด	-11191
▁ฟรี	-11192
คล่อง	-11193
หน้าร	-11194
ากรุก	-11195
▁true	-11196
พ่อของ	-11197
สูงถึง	-11198
เบิร์น	-11199
▁กรุ๊ป	-11200
อัลบั้มชุดที่	-11201
mi	-11202
wood	-11203
เมดิ	-11204
แก๊ง	-11205
▁who	-11206
ใหม่ๆ	-11207
มาช่วย	-11208
สืบพันธุ์	-11209
เพลย์สเตชัน	-11210
นรก	-11211
แทง	-11212
▁กฎ	-11213
▁สต	-11214
อาระ	-11215
โค่น	-11216
▁หาง	-11217
ility	-11218
ดีวีดี	-11219
▁ก็คือ	-11220
▁ล้านปี	-11221
ดําเนินรายการ	-11222
raw	-11223
้วาง	-11224
บนโลก	-11225
เธอยัง	-11226
▁ประสบ	-11227
▁station	-11228
คด	-11229
บด	-11230
ฝ่	-11231
king	-11232
มัคร	-11233
หวัด	-11234
อลํา	-11235
ใหญ่น	-11236
▁most	-11237
▁ธิดา	-11238
กับพระ	-11239
ลองจิจูด	-11240
ร่วมงานกับ	-11241
do	-11242
ery	-11243
จรด	-11244
บอง	-11245
พอง	-11246
ซุ้ม	-11247
▁lim	-11248
▁กุล	-11249
▁ออฟ	-11250
เรสต์	-11251
สแควร์	-11252
เลี้ยว	-11253
วัตกรรม	-11254
▁academ	-11255
▁ผม	-11256
ฮอล์	-11257
เขาร	-11258
เสนี	-11259
▁คอย	-11260
พากัน	-11261
มาตลอด	-11262
ริยธรรม	-11263
สารเคมี	-11264
▁โดยผู้	-11265
ห้องสมุด	-11266
มากเกินไป	-11267
ชีวประวัติ	-11268
ตส์	-11269
▁บั	-11270
▁กลับมา	-11271
▁แต่ก็มี	-11272
ที่ยิ่งใหญ่	-11273
นิสิตเก่าคณะ	-11274
▁มีชื่อเสียง	-11275
▁ประวัติศาสตร์	-11276
ฟฟ์	-11277
มิฬ	-11278
วัญ	-11279
นาวุธ	-11280
แบร์ก	-11281
กว่าจะ	-11282
คมนตรี	-11283
แม่ของ	-11284
ต่างหาก	-11285
เพลงชาติ	-11286
ตามปฏิทิน	-11287
▁และตําบล	-11288
ตราแผ่นดิน	-11289
บูร์	-11290
เลียง	-11291
มีเดีย	-11292
นั้นคือ	-11293
พิทยาคม	-11294
ที่หนึ่ง	-11295
วันจันทร์	-11296
อยู่ภายใน	-11297
อารามหลวง	-11298
ที่ถูกต้อง	-11299
อยู่ในช่วง	-11300
ศึกษาศาสตร์	-11301
ไหร	-11302
พลิก	-11303
เกรด	-11304
▁ever	-11305
พิจิตร	-11306
กลุ่มดาว	-11307
สกุลเดิม	-11308
▁ที่สนาม	-11309
สมณศักดิ์	-11310
สมุทรสาคร	-11311
หลายเรื่อง	-11312
พระราชดําริ	-11313
▁0-000-00000-0	-11314
ธิด	-11315
ปัด	-11316
ไดร	-11317
ผนวก	-11318
ริโอ	-11319
เว่น	-11320
พอร์ต	-11321
แสวงหา	-11322
ซ่อมแซม	-11323
▁people	-11324
คอปเตอร์	-11325
ตํารวจเอก	-11326
ผลงานเพลง	-11327
▁ลงวันที่	-11328
แบท	-11329
แอด	-11330
▁aut	-11331
▁mult	-11332
▁ห้าม	-11333
ปนาวุธ	-11334
นับเป็น	-11335
แอนตาร์	-11336
ปาเลสไตน์	-11337
▁ในสังกัด	-11338
บริหารจัดการ	-11339
พาท	-11340
มุติ	-11341
ลคีน	-11342
โมเดล	-11343
▁ปิยะ	-11344
บุหรี่	-11345
▁ภรรยา	-11346
▁เชื้อ	-11347
อตเตอร์	-11348
ี่ยงไฮ้	-11349
อีกมากมาย	-11350
itor	-11351
ทุ่ม	-11352
▁แมลง	-11353
▁โพธิ	-11354
iction	-11355
▁which	-11356
▁ศาสนา	-11357
อายุมาก	-11358
ัจฉริยะ	-11359
เหตุให้	-11360
แกะสลัก	-11361
▁อดีตรอง	-11362
นี้ทําให้	-11363
ประกาศใช้	-11364
▁วัฒนธรรม	-11365
▁จนถึงปัจจุบัน	-11366
กั่ว	-11367
ควอน	-11368
วิตก	-11369
ering	-11370
นายพล	-11371
เขตแดน	-11372
▁นักมวย	-11373
ของบุคคล	-11374
ภาพเหมือน	-11375
เซอร์เบีย	-11376
ของเครื่อง	-11377
เดินทางกลับ	-11378
ของสาธารณรัฐ	-11379
▁information	-11380
ปั	-11381
uct	-11382
uke	-11383
สัจ	-11384
cont	-11385
▁ฉายา	-11386
▁สมุทร	-11387
มหาราชวัง	-11388
▁อีกทั้งยัง	-11389
duc	-11390
ero	-11391
อดู	-11392
ัสร	-11393
ison	-11394
▁fin	-11395
จดจํา	-11396
สามคน	-11397
▁cast	-11398
ตัวแปร	-11399
ได้ที่	-11400
พอสมควร	-11401
▁พระธรรม	-11402
พระตําหนัก	-11403
เพื่อสร้าง	-11404
เป็นเจ้าของ	-11405
นักท่องเที่ยว	-11406
dro	-11407
ทิง	-11408
ฟี่	-11409
ลัม	-11410
ในแง่	-11411
▁orig	-11412
▁rank	-11413
▁เทียบ	-11414
าวาเรีย	-11415
▁points	-11416
▁นักบุญ	-11417
ดีที่สุด	-11418
ศึกษาระดับ	-11419
ได้กลายเป็น	-11420
ของจักรพรรดิ	-11421
ขร	-11422
มิก	-11423
▁iv	-11424
กุญแจ	-11425
ดวงตา	-11426
ฟาโรห์	-11427
าสมัคร	-11428
จุฬาโลก	-11429
นิวตรอน	-11430
รักษาการ	-11431
สัมพันธ์กับ	-11432
▁จากนั้นจึง	-11433
sw	-11434
vis	-11435
รื่น	-11436
วิตร	-11437
เคยมี	-11438
เนียบ	-11439
▁ฟราน	-11440
นําโดย	-11441
อเรียน	-11442
แสดงออก	-11443
เทศมนตรี	-11444
▁จากอัลบั้ม	-11445
ยวด	-11446
ริดา	-11447
อินท	-11448
ณาการ	-11449
เบญจม	-11450
ของกรม	-11451
คุณวุฒิ	-11452
ที่เห็น	-11453
ยาเสพติด	-11454
▁ชื่อเล่น	-11455
วิกิพีเดีย	-11456
ของจักรวรรดิ	-11457
ชั้นประถมศึกษา	-11458
วิค	-11459
ฮอน	-11460
หมอก	-11461
▁ไกร	-11462
สีส้ม	-11463
ไว้วาง	-11464
ปลายทาง	-11465
ศิริราช	-11466
▁ขั้นตอน	-11467
▁ที่ซึ่ง	-11468
▁พลังงาน	-11469
▁เป็นภาษา	-11470
ลิคอปเตอร์	-11471
ico	-11472
าย์	-11473
ธิบาย	-11474
ฮีโร่	-11475
ที่ชอบ	-11476
ของพรรค	-11477
คฤหาสน์	-11478
สมาพันธ์	-11479
ในปีนั้น	-11480
▁ในรายการ	-11481
จี้	-11482
ophy	-11483
▁พูด	-11484
▁แตก	-11485
ปริญญ	-11486
แล้วก็	-11487
▁ในนาม	-11488
ตรวจจับ	-11489
▁แนวคิด	-11490
▁อินเตอร์	-11491
▁0-0000-0000	-11492
ถ้วยพระราชทาน	-11493
put	-11494
rew	-11495
โสธร	-11496
ชาติน	-11497
ปรกติ	-11498
หัตถ์	-11499
กันกับ	-11500
เข้าศึกษา	-11501
▁เนื่องจากมี	-11502
ฮอก	-11503
pent	-11504
play	-11505
หมัก	-11506
ุกูล	-11507
ปักษ์	-11508
▁นิติ	-11509
▁วีระ	-11510
ปรางค์	-11511
พลศึกษา	-11512
หนึ่งว่า	-11513
พุทธยอดฟ้า	-11514
สงครามกลางเมือง	-11515
ี๋	-11516
icle	-11517
หนุน	-11518
ูเอล	-11519
คนรัก	-11520
นิบาต	-11521
นครพนม	-11522
▁after	-11523
จากความ	-11524
เฟเธอร์	-11525
ใหม่ที่	-11526
ที่สถานี	-11527
ผลงานของ	-11528
ที่ใหญ่ที่สุดใน	-11529
ผลัด	-11530
แบ็ก	-11531
โค้ช	-11532
ไอโอ	-11533
▁det	-11534
▁eff	-11535
แมตช์	-11536
ไพศาล	-11537
▁font	-11538
ฝึกอบรม	-11539
อุโมงค์	-11540
และภาษา	-11541
▁battle	-11542
สุขุมวิท	-11543
ศิลปวิทยา	-11544
และอําเภอ	-11545
ถ้วน	-11546
▁วีร	-11547
แห่งแรก	-11548
ต้องการให้	-11549
พระบรมราชานุ	-11550
ชาวฟิลิปปินส์	-11551
kok	-11552
▁#*	-11553
omet	-11554
มั่ง	-11555
เส้า	-11556
▁กรัม	-11557
มิตรภาพ	-11558
▁อํานาจ	-11559
▁นายแพทย์	-11560
▁ในฤดูกาล	-11561
ข้อความว่า	-11562
ใช้ชื่อว่า	-11563
▁ความผิดปกติ	-11564
▁นักวิทยาศาสตร์	-11565
vir	-11566
พหล	-11567
▁เก็	-11568
ปกรณ์	-11569
▁more	-11570
แล้วจะ	-11571
บุกเบิก	-11572
เวชศาสตร์	-11573
▁official	-11574
▁จึงมีการ	-11575
พื้นฐานของ	-11576
สอดคล้องกับ	-11577
▁จีเอ็มเอ็ม	-11578
mic	-11579
จูง	-11580
▁ฟอน	-11581
ities	-11582
พัทยา	-11583
▁เข็ม	-11584
▁ใกล้	-11585
ตระเวน	-11586
พ่อค้า	-11587
เสียงร้อง	-11588
ป้องกันและ	-11589
กษา	-11590
ิตี	-11591
ใฝ่	-11592
ผู้ใด	-11593
มากใน	-11594
▁หลอด	-11595
ไปกว่า	-11596
อักษรศาสตร์	-11597
ไจ	-11598
bus	-11599
mal	-11600
ซาว	-11601
หรัฐ	-11602
ประจําร	-11603
การโจมตี	-11604
สาธารณชน	-11605
สําคัญใน	-11606
โมบิลสูท	-11607
▁journal	-11608
▁มีเพียง	-11609
ถ่ายทอดสด	-11610
cast	-11611
วยาว	-11612
ัตตา	-11613
ไพร์	-11614
▁บัล	-11615
▁มวย	-11616
ทรมาน	-11617
โซนิค	-11618
▁ไม่น	-11619
เจ็บปวด	-11620
▁แผ่นดิน	-11621
▁เชิญยิ้ม	-11622
การเดินทาง	-11623
▁จบการศึกษาระดับ	-11624
ซึก	-11625
รรค	-11626
▁os	-11627
▁zh	-11628
คุ้น	-11629
▁แอง	-11630
▁fire	-11631
นักสืบ	-11632
อินทรี	-11633
เป็นสิ่ง	-11634
▁จึงต้อง	-11635
▁วิธีการ	-11636
ในหนังสือ	-11637
cal	-11638
▁นน	-11639
ives	-11640
อาสา	-11641
▁จับ	-11642
ปอนด์	-11643
▁อุดม	-11644
▁แต่ถูก	-11645
ในท้องถิ่น	-11646
▁สถาปัตยกรรม	-11647
▁ประเทศเยอรมนี	-11648
▁คณะวิทยาศาสตร์	-11649
มาด	-11650
เป็ด	-11651
ฝาแฝด	-11652
แดนซ์	-11653
▁เฮอร์	-11654
▁ชื่อว่า	-11655
กํากับการ	-11656
การปฏิวัติ	-11657
ทิศตะวันตก	-11658
▁มีความหมาย	-11659
อัฐ	-11660
alth	-11661
สติก	-11662
▁ปรี	-11663
japan	-11664
ระเข้	-11665
เคาน์	-11666
วงโคจร	-11667
สูงมาก	-11668
ไม่ต้อง	-11669
นักวิชาการ	-11670
เอกอัครราชทูต	-11671
▁๙	-11672
sen	-11673
ทีป	-11674
ล่อ	-11675
สับ	-11676
โพน	-11677
▁และคณะ	-11678
▁มาร์ติน	-11679
เฟเธอร์เวท	-11680
นักฟุตบอลชาว	-11681
ิชอป	-11682
▁pap	-11683
▁พบใน	-11684
ที่รัก	-11685
แกนนํา	-11686
ยกระดับ	-11687
▁แล้วจึง	-11688
ที่จะต้อง	-11689
ครั้งแรกที่	-11690
ษฏ	-11691
''”	-11692
อิศ	-11693
แวง	-11694
cher	-11695
อยส์	-11696
เลโอ	-11697
▁gar	-11698
ก่อนจะ	-11699
ดีกว่า	-11700
▁ความรัก	-11701
ของร่างกาย	-11702
▁ขณะเดียวกัน	-11703
aby	-11704
ray	-11705
อักษ	-11706
▁fed	-11707
▁ท้าว	-11708
▁สวัส	-11709
▁other	-11710
ส่วนหัว	-11711
ตั้งอยู่บน	-11712
ทิศตะวันออก	-11713
หมายความว่า	-11714
พลัด	-11715
ควรจะ	-11716
พาร์ก	-11717
คําพูด	-11718
จากผู้	-11719
▁เหลือ	-11720
▁การที่	-11721
▁มูลนิธิ	-11722
ที่วันแรก	-11723
บาสเกตบอล	-11724
เป็นประเทศ	-11725
เวลากลางคืน	-11726
bas	-11727
ปัว	-11728
ถนัด	-11729
ากว่า	-11730
▁anim	-11731
ทางจิต	-11732
ทีมงาน	-11733
ตระหนัก	-11734
▁ปฏิบัติ	-11735
ของสถาบัน	-11736
มหัศจรรย์	-11737
สนามแม่เหล็ก	-11738
สมาชิกวุฒิสภา	-11739
ภาพยนตร์อเมริกัน	-11740
รอก	-11741
▁อัม	-11742
หร่าย	-11743
▁peter	-11744
ห่างไกล	-11745
บ้านเรือน	-11746
เป็นไปได้	-11747
▁ความเร็ว	-11748
ที่หลากหลาย	-11749
ราชกิจจานุเบกษา	-11750
fo	-11751
ashi	-11752
วียน	-11753
ีบรู	-11754
▁kim	-11755
▁กรด	-11756
มาชิก	-11757
▁disc	-11758
บังเอิญ	-11759
▁บทความ	-11760
ตึง	-11761
ข้อบ	-11762
ารวม	-11763
▁cup	-11764
▁die	-11765
▁ผ้า	-11766
ทิศใต้	-11767
ไอน้ํา	-11768
ขาดแคลน	-11769
▁ที่กรุง	-11770
กันและกัน	-11771
ฐานข้อมูล	-11772
มอบรางวัล	-11773
▁คนสุดท้าย	-11774
สุรทินที่วันแรก	-11775
าสึ	-11776
เรซ	-11777
▁ve	-11778
ชาวด	-11779
สาวๆ	-11780
ํามา	-11781
▁und	-11782
▁บลู	-11783
▁“''	-11784
นาการ	-11785
▁feat	-11786
ใหม่เป็น	-11787
▁records	-11788
ที่สองของ	-11789
มัธยมปลาย	-11790
▁ผลิตภัณฑ์	-11791
arm	-11792
ทิก	-11793
หวง	-11794
▁ตก	-11795
ป่วน	-11796
มีรูป	-11797
▁เวีย	-11798
▁โชติ	-11799
แบรนด์	-11800
▁found	-11801
▁อดีตน	-11802
ที่นั่น	-11803
ระดับโลก	-11804
พระองค์ที่	-11805
ว่าเป็นการ	-11806
ห้อ	-11807
▁ล่า	-11808
โมโซม	-11809
▁วรรณ	-11810
▁ออกมา	-11811
บ้านพัก	-11812
เท่าที่	-11813
▁เล่มที่	-11814
▁ในเครือ	-11815
แพร่กระจาย	-11816
▁ดอลลาร์สหรัฐ	-11817
ในประเทศฝรั่งเศส	-11818
ขอม	-11819
วนา	-11820
ุฒิ	-11821
เจล	-11822
นําร	-11823
พิตร	-11824
ลุมพ	-11825
ันดา	-11826
กระดาน	-11827
ร่างของ	-11828
สัมพันธ	-11829
▁commun	-11830
สงครามกับ	-11831
ตั้งแต่สมัย	-11832
โทรทัศน์โดย	-11833
ได้เข้าร่วม	-11834
pre	-11835
สตร	-11836
จิ้น	-11837
ันดร	-11838
▁บอก	-11839
วิสัย	-11840
▁just	-11841
ใช้การ	-11842
กองหลัง	-11843
มิสแกรนด์	-11844
ภูมิคุ้มกัน	-11845
▁เป็นบุตรของนาย	-11846
บอ	-11847
bon	-11848
ปิง	-11849
ูไร	-11850
แตง	-11851
bout	-11852
ustr	-11853
เนสโก	-11854
▁อ้าง	-11855
ื้อรัง	-11856
แนวเพลง	-11857
นครินทร์	-11858
▁เป็นสัตว์	-11859
เป็นนักแสดง	-11860
แผ่นดินใหญ่	-11861
▁หนังสือพิมพ์	-11862
เกี่ยวข้องกับการ	-11863
ส์และ	-11864
▁มาตรา	-11865
▁europe	-11866
▁เป็นลูก	-11867
อําเภอบ้าน	-11868
เป็นส่วนใหญ่	-11869
การท่องเที่ยว	-11870
มณ	-11871
ดุง	-11872
หาน	-11873
▁ตู	-11874
▁wil	-11875
▁จิร	-11876
อุปัชฌ	-11877
โดยมาก	-11878
โคลัมเบีย	-11879
อัลบั้มเพลง	-11880
▁ผู้เข้าแข่งขัน	-11881
ful	-11882
าสิ	-11883
▁ce	-11884
hist	-11885
นามิ	-11886
หย่า	-11887
สั้นๆ	-11888
ในภาพ	-11889
ไปใช้	-11890
▁into	-11891
▁ขวัญ	-11892
ของเจ้า	-11893
▁เป็นตัว	-11894
ความทรงจํา	-11895
คณะแพทยศาสตร์	-11896
ลาออกจากตําแหน่ง	-11897
หีบ	-11898
อาม	-11899
▁โอะ	-11900
ติดกัน	-11901
▁ในภาค	-11902
ชาตินิยม	-11903
เสียงโดย	-11904
▁อําเภอส	-11905
ที่ทํางาน	-11906
เป็นแหล่ง	-11907
▁โดยสามารถ	-11908
เพลงไทยสากล	-11909
สซา	-11910
สรี	-11911
เทม	-11912
ides	-11913
ทมิฬ	-11914
เบรก	-11915
ได้หลาย	-11916
และสัตว์	-11917
สุขาภิบาล	-11918
▁และระดับ	-11919
เรียกกันว่า	-11920
▁อินโดนีเซีย	-11921
▁เป็นพระราชโอรส	-11922
gi	-11923
án	-11924
ken	-11925
ซาง	-11926
ธาต	-11927
สาวก	-11928
ตัวจริง	-11929
ลงนามใน	-11930
วิเชียร	-11931
▁ธงชาติ	-11932
ชั่วร้าย	-11933
เข้ารหัส	-11934
เข้าประกวด	-11935
wan	-11936
สถ์	-11937
▁lab	-11938
▁pet	-11939
เหล้า	-11940
ตามความ	-11941
เด็ดขาด	-11942
แต่เดิม	-11943
ด้วยตนเอง	-11944
และประเทศ	-11945
bor	-11946
อดิ	-11947
▁0"	-11948
▁ko	-11949
หยิบ	-11950
▁ใคร	-11951
รางกูร	-11952
อุตสาห	-11953
จะเริ่ม	-11954
รับจ้าง	-11955
ส่งสัญญาณ	-11956
โทรคมนาคม	-11957
▁ได้ประกาศ	-11958
ฤๅ	-11959
อร์ท	-11960
เคีย	-11961
โยะชิ	-11962
▁gard	-11963
ากรุณา	-11964
ข้อเสนอ	-11965
น้อยมาก	-11966
▁000000	-11967
▁ปรากฏว่า	-11968
ขยายพันธุ์	-11969
▁แต่ปัจจุบัน	-11970
ังข	-11971
▁him	-11972
▁เทว	-11973
พบกัน	-11974
▁อินทร	-11975
เชสแห่ง	-11976
สรรเสริญ	-11977
เรื้อรัง	-11978
▁และต้อง	-11979
โทรทรรศน์	-11980
▁สิงคโปร์	-11981
พระสันตะปาปา	-11982
ทางตอนเหนือของ	-11983
ym	-11984
ฮิโตะ	-11985
ฮีบรู	-11986
▁game	-11987
▁ภัทร	-11988
ผสมกับ	-11989
▁human	-11990
ถือหุ้น	-11991
หมากรุก	-11992
เล่าปี่	-11993
จะเป็นการ	-11994
ดัส	-11995
side	-11996
ดริช	-11997
▁stre	-11998
.0000)	-11999
ที่ลาก	-12000
วัตถุด	-12001
หนึ่งคือ	-12002
▁รูปร่าง	-12003
ครัวเรือน	-12004
ร้านอาหาร	-12005
▁festival	-12006
▁เจ้าอาวาส	-12007
อเล็กซานเดอร์	-12008
ซอก	-12009
ฝ้าย	-12010
วนํา	-12011
ุโรป	-12012
แต้ม	-12013
ันสกฤต	-12014
เบิร์ด	-12015
เวลาที่	-12016
▁โตเกียว	-12017
บังคับใช้	-12018
เพื่อความ	-12019
ประจวบคีรีขันธ์	-12020
ภาณุ	-12021
ไปหา	-12022
ไปอีก	-12023
▁kore	-12024
▁เทอร์	-12025
▁แพทย์	-12026
ด้านนอก	-12027
▁และเคย	-12028
▁chinese	-12029
เก็บรักษา	-12030
▁ซึ่งหมายถึง	-12031
โฮะ	-12032
ants	-12033
pres	-12034
▁เขาส	-12035
ถอนตัว	-12036
เคเบิล	-12037
เซ็นต์	-12038
▁again	-12039
▁พระวร	-12040
สระแก้ว	-12041
ทํารายได้	-12042
สถานีวิทยุ	-12043
เหรียญทองแดง	-12044
กรรมการบริหาร	-12045
พบบ	-12046
▁ur	-12047
▁ชะ	-12048
ปรมา	-12049
เอลา	-12050
ถูกใช้	-12051
นักบวช	-12052
ได้ทํา	-12053
วิตามิน	-12054
สิ้นสภาพ	-12055
เรียนต่อ	-12056
ในตระกูล	-12057
▁แม้ว่าจะ	-12058
เหมือนเดิม	-12059
ผู้เชี่ยวชาญ	-12060
ซิงเกิลอันดับ	-12061
เปิดให้บริการ	-12062
apt	-12063
▁คอ	-12064
edia	-12065
พยาน	-12066
▁จตุ	-12067
▁ศึก	-12068
▁สุริ	-12069
จู่โจม	-12070
▁years	-12071
พัฒนามา	-12072
▁แมคอิน	-12073
▁สนามกีฬา	-12074
ทางตะวันตก	-12075
ราชดําเนิน	-12076
ความผิดปกติ	-12077
เป็นนักร้อง	-12078
โมเดิร์นไนน์	-12079
นะงะ	-12080
าทอง	-12081
▁hen	-12082
▁ดิส	-12083
▁แมก	-12084
ของสาร	-12085
จีเรีย	-12086
กล้าหาญ	-12087
แล้วยัง	-12088
ใบอนุญาต	-12089
▁company	-12090
▁ซึ่งใช้	-12091
เท่าเทียม	-12092
แสงอาทิตย์	-12093
▁ยกตัวอย่างเช่น	-12094
▁ลั	-12095
▁ธีร	-12096
▁นาค	-12097
▁เคาน	-12098
เกษตรกร	-12099
สนธิสัญญ	-12100
ออตโตมัน	-12101
▁แต่ทว่า	-12102
ฉาน	-12103
▁ga	-12104
▁ไบ	-12105
แอนน์	-12106
ครักษ์	-12107
▁ปัญญา	-12108
▁พิธีก	-12109
ขึ้นที่	-12110
ทางการค้า	-12111
เป็นสัตว์	-12112
ทางการศึกษา	-12113
▁แบ่งออกเป็น	-12114
▁ซึ่งประกอบด้วย	-12115
สพ	-12116
ข่า	-12117
ฒ่า	-12118
ทอน	-12119
ุกะ	-12120
แสบ	-12121
▁ไค	-12122
โสภณ	-12123
▁กรี	-12124
ชาลส์	-12125
ซิมส์	-12126
▁ช้าง	-12127
กอฮอล์	-12128
นอกเขต	-12129
▁march	-12130
▁ประดิ	-12131
ผู้สมัคร	-12132
พระสวามี	-12133
▁กันดั้ม	-12134
ได้มากกว่า	-12135
เส้นเมริเดียน	-12136
▁ซึ่งปัจจุบัน	-12137
▁ในขณะเดียวกัน	-12138
่ะ	-12139
▁ขา	-12140
▁how	-12141
▁web	-12142
▁ฉาก	-12143
ปล้อง	-12144
▁have	-12145
ograph	-12146
ข้าหลวง	-12147
ทางเหนือ	-12148
เพชรบูรณ์	-12149
แผ่นเสียง	-12150
เลื่อนชั้น	-12151
nam	-12152
▁ext	-12153
ลูกเธอ	-12154
โรงละคร	-12155
▁เป็นวัน	-12156
ปลาสวยงาม	-12157
เคลื่อนย้าย	-12158
▁ฟิลิปปินส์	-12159
▁แห่งฝรั่งเศส	-12160
▁gh	-12161
ล่าว	-12162
rough	-12163
มงกุฏ	-12164
ไทยและ	-12165
เอฟเอ็ม	-12166
▁นาฬิกา	-12167
กําลังกาย	-12168
ของพระเยซู	-12169
::	-12170
zh	-12171
ควน	-12172
คอฟ	-12173
เด้	-12174
คาดว่า	-12175
คเกอร์	-12176
ผืนผ้า	-12177
อาร์เซนอล	-12178
เพิ่มมากขึ้น	-12179
เหงา	-12180
โอริ	-12181
▁hel	-12182
▁แขน	-12183
เบิ้ล	-12184
▁เสนอ	-12185
▁angel	-12186
กองเรือ	-12187
ปากน้ํา	-12188
ยังไม่มี	-12189
ส่วนกลาง	-12190
▁ทําให้มี	-12191
▁management	-12192
ส่วนใหญ่เป็น	-12193
นิง	-12194
เทก	-12195
เล็ต	-12196
แจ็ค	-12197
บาศก์	-12198
▁radio	-12199
มาเพื่อ	-12200
▁นําโดย	-12201
▁ลําต้น	-12202
พระภิกษุ	-12203
▁richard	-12204
ส่วนพระองค์	-12205
ที่มีความสามารถ	-12206
cat	-12207
ira	-12208
ขยะ	-12209
จูน	-12210
อุล	-12211
▁pan	-12212
▁china	-12213
ล่วงหน้า	-12214
เซ็นทรัล	-12215
เพราะว่า	-12216
อย่างเป็น	-12217
สหภาพยุโรป	-12218
▁cambridge	-12219
▁แห่งอังกฤษ	-12220
wik	-12221
นิด	-12222
เต้า	-12223
เร้า	-12224
ไวน์	-12225
▁mas	-12226
▁ปลาก	-12227
▁ราคา	-12228
▁หุ่น	-12229
▁อรรถ	-12230
ิมนุษย	-12231
▁movie	-12232
▁เพอร์	-12233
▁design	-12234
▁ผู้ชนะ	-12235
ที่ใช้ใน	-12236
ผู้สร้าง	-12237
▁ซึ่งอาจ	-12238
▁เป็นเกม	-12239
อยู่อย่าง	-12240
อุปัชฌาย์	-12241
▁จูเนียร์	-12242
จะมีลักษณะ	-12243
ปฏิบัติตาม	-12244
less	-12245
แชร์	-12246
▁ราก	-12247
มาร์ก	-12248
เดวิด	-12249
ในอีก	-12250
หน้าใหม่	-12251
จัดรายการ	-12252
ประเภทนี้	-12253
เซ็นสัญญา	-12254
▁อุตสาหกรรม	-12255
สอ	-12256
ลดา	-12257
ใต้อ	-12258
▁den	-12259
▁wat	-12260
▁แอส	-12261
เฉียบ	-12262
ชาชีวะ	-12263
▁0000"	-12264
▁เคียว	-12265
ช่วงที่	-12266
มุขนายก	-12267
ทะเลทราย	-12268
▁พบกระจายพันธุ์	-12269
โณ	-12270
อธิก	-12271
▁cir	-12272
▁ซุน	-12273
▁ผัก	-12274
หาทาง	-12275
▁muse	-12276
วนิยาย	-12277
มะพร้าว	-12278
อยู่ตาม	-12279
ังกล่าว	-12280
บาวาเรีย	-12281
สิ้นเชิง	-12282
▁ในระดับ	-12283
▁สภ	-12284
เล็ง	-12285
ดน้อย	-12286
▁0.0%	-12287
▁alex	-12288
เอิร์ธ	-12289
ก็ยังคง	-12290
จูเลียน	-12291
ดังกล่า	-12292
ได้แล้ว	-12293
tt	-12294
ucle	-12295
urch	-12296
▁ดอน	-12297
ตอนกลาง	-12298
ological	-12299
▁''000''	-12300
▁รุ	-12301
แจ็ก	-12302
ไซน์	-12303
▁att	-12304
▁สอบ	-12305
ธิคุณ	-12306
บพิตร	-12307
▁four	-12308
▁books	-12309
▁dance	-12310
พอที่จะ	-12311
ลําน้ํา	-12312
▁เจ้าจอม	-12313
หมุนเวียน	-12314
เทศบาลนคร	-12315
เหรียญเงิน	-12316
อํานวยความสะดวก	-12317
▁ในสหรัฐอเมริกา	-12318
ขู่	-12319
โมส	-12320
ชาร์ล	-12321
ภัยพิ	-12322
ต่อวัน	-12323
บนพื้น	-12324
และทรง	-12325
▁about	-12326
หลังของ	-12327
▁ต้นไม้	-12328
สนามหลวง	-12329
สองครั้ง	-12330
ปลงพระชนม์	-12331
ทางตะวันออก	-12332
เพลงที่ประพันธ์	-12333
เคส	-12334
▁id	-12335
เมียว	-12336
เยื่อหุ้ม	-12337
▁สร้างโดย	-12338
ทิ้งระเบิด	-12339
▁ความสัมพันธ์	-12340
จิตรกรรมฝาผนัง	-12341
สืบราชบัลลังก์	-12342
คราช	-12343
ไนต์	-12344
▁ลาว	-12345
strum	-12346
▁mill	-12347
▁หนัง	-12348
ย่อว่า	-12349
ใหม่นี้	-12350
▁ในระยะ	-12351
บริเวณที่	-12352
เป็นฝ่ายชนะ	-12353
ปีน	-12354
รรูป	-12355
ality	-12356
พันธุ	-12357
▁free	-12358
และชาว	-12359
▁คาร์ล	-12360
▁language	-12361
ren	-12362
ved	-12363
▁ฮะ	-12364
ผนึก	-12365
เร็ต	-12366
▁pri	-12367
▁tak	-12368
เอลฟ์	-12369
▁เอ็ก	-12370
▁sport	-12371
การเกิด	-12372
พิพัฒน์	-12373
อํานาจของ	-12374
ปราจีนบุรี	-12375
gn	-12376
ซ็อน	-12377
สหาย	-12378
▁ลาน	-12379
ปีต่อมา	-12380
ทหารอากาศ	-12381
ูญ	-12382
nwa	-12383
เดชา	-12384
▁jim	-12385
ระบาย	-12386
▁sign	-12387
จะอยู่	-12388
โมะโตะ	-12389
▁ปราโม	-12390
▁วิดีโอ	-12391
▁นักดนตรี	-12392
บิต	-12393
เฟส	-12394
▁วอ	-12395
หลี่	-12396
▁ยิง	-12397
รินธร	-12398
อีกคน	-12399
▁hard	-12400
ของคุณ	-12401
รันดร์	-12402
แก่ผู้	-12403
▁sound	-12404
ข่าวสาร	-12405
ิมทรัพย์	-12406
ทําการสอน	-12407
เหลืออยู่	-12408
อัลบั้มนี้	-12409
eri	-12410
ลิช	-12411
เร่	-12412
อมตะ	-12413
▁son	-12414
ดัตช์	-12415
บารมี	-12416
ประภา	-12417
ไมตรี	-12418
▁happ	-12419
รัสเซล	-12420
▁สันติ	-12421
จักรวรร	-12422
▁เอ็กซ์	-12423
เข้ามาใน	-12424
▁ตําบลท่า	-12425
▁เวียดนาม	-12426
ตรงข้ามกับ	-12427
ส่วนราชการ	-12428
▁00,000,000	-12429
ญญา	-12430
เจเน	-12431
▁fact	-12432
อุปราช	-12433
มาจนถึง	-12434
เป็นเด็ก	-12435
วรา	-12436
ากระ	-12437
ใคร่	-12438
▁squ	-12439
ตอนบน	-12440
เกร็ด	-12441
▁สนิท	-12442
จากคณะ	-12443
▁artist	-12444
จัดอยู่ใน	-12445
▁พอตเตอร์	-12446
ทั้งสองข้าง	-12447
ส่วนจังหวัด	-12448
ุณ	-12449
อาง	-12450
รมหา	-12451
▁0/0	-12452
มอสโก	-12453
ศาสน์	-12454
▁chem	-12455
▁ทุ่ง	-12456
คํานึง	-12457
ได้แสดง	-12458
พิธีกรรม	-12459
ทํางานที่	-12460
เห็นได้ชัด	-12461
เหนือของประเทศ	-12462
ห้อย	-12463
▁aud	-12464
▁arts	-12465
▁pict	-12466
ความสุข	-12467
ิมนุษยชน	-12468
เสนาธิการ	-12469
และมีความ	-12470
พระราชสมภพ	-12471
พุทธศาสนิกชน	-12472
นักฟุตบอลทีมชาติ	-12473
aro	-12474
จิส	-12475
ตื้น	-12476
ารอน	-12477
▁โจน	-12478
▁ถวาย	-12479
▁มิตร	-12480
ซากุระ	-12481
เตสแตน	-12482
แม่มารี	-12483
ให้น้ํา	-12484
ความเห็น	-12485
ฝ่ายหน้า	-12486
▁ด้านหน้า	-12487
ks	-12488
cis	-12489
ันทา	-12490
เอมอน	-12491
▁คริสต	-12492
ของเหล่า	-12493
▁มีนิสัย	-12494
มีพื้นที่	-12495
▁ที่สร้าง	-12496
▁เดอะสตาร์	-12497
bro	-12498
เตส	-12499
เฟซ	-12500
ประถ	-12501
อีซี	-12502
▁ฮิต	-12503
ําหรับ	-12504
สยองขวัญ	-12505
โรแมนติก	-12506
▁อยู่ที่	-12507
ถือกําเนิด	-12508
เลื้อยคลาน	-12509
▁เวชชาชีวะ	-12510
▁นับตั้งแต่	-12511
:0	-12512
vin	-12513
พลิ	-12514
อัพ	-12515
แปน	-12516
โซะ	-12517
▁พย	-12518
mann	-12519
ซะกิ	-12520
เวเน	-12521
ไลต์	-12522
▁มณี	-12523
พันธะ	-12524
▁(00)	-12525
ตอนใต้	-12526
บางแห่ง	-12527
เผชิญหน้า	-12528
เก็บข้อมูล	-12529
▁เอิร์ลแห่ง	-12530
เป็นที่ยอมรับ	-12531
mod	-12532
you	-12533
นนท์	-12534
โทรม	-12535
ธงชัย	-12536
บทกวี	-12537
ไปให้	-12538
▁พม่า	-12539
นางเอก	-12540
ยอดเขา	-12541
ังขรณ์	-12542
ารัตน์	-12543
ขึ้นตาม	-12544
ระเบียง	-12545
อายุน้อย	-12546
ผู้เสียชีวิต	-12547
ال	-12548
เตย	-12549
mond	-12550
ด้อย	-12551
สุรา	-12552
โกศล	-12553
ไอซ์	-12554
ติจูด	-12555
รกรรม	-12556
เหลียง	-12557
▁mount	-12558
ช่วยกัน	-12559
อิสรภาพ	-12560
เป็นภาพ	-12561
เพลงฮิต	-12562
levision	-12563
▁ก่อนหน้า	-12564
ความพยายาม	-12565
ศิลปศาสตร์	-12566
จัดตั้งเป็น	-12567
มาสค์ไรเดอร์	-12568
▁ฟี	-12569
ทนาย	-12570
รงก์	-12571
▁bill	-12572
ภาคที่	-12573
และสร้าง	-12574
นี้สามารถ	-12575
แบ่งกลุ่ม	-12576
▁เริ่มจาก	-12577
▁โดยได้รับ	-12578
ตําแหน่งของ	-12579
cor	-12580
ule	-12581
|''	-12582
ปาร	-12583
▁cult	-12584
▁ขบวน	-12585
ต่อมาก็	-12586
ที่สนาม	-12587
ยูเนสโก	-12588
เข็มขัด	-12589
ของคลื่น	-12590
ช่องว่าง	-12591
▁ชาวบ้าน	-12592
▁รัสเซีย	-12593
รวมกันเป็น	-12594
▁technology	-12595
เพื่อเป็นการ	-12596
oma	-12597
ทรุด	-12598
▁its	-12599
▁thai	-12600
▁ยุทธ	-12601
▁เรียบ	-12602
กระนั้น	-12603
ไม่มีความ	-12604
▁นักศึกษา	-12605
เชื่อกันว่า	-12606
▁ดําเนินการ	-12607
▁พระราชบัญญัติ	-12608
ดล	-12609
ซือ	-12610
ฮิว	-12611
โกศ	-12612
▁hon	-12613
ตรฐาน	-12614
▁three	-12615
▁กล้อง	-12616
น้ําจืด	-12617
เงินทุน	-12618
▁ทํานอง	-12619
แสงสว่าง	-12620
▁ผู้ก่อตั้ง	-12621
เป็นที่มาของ	-12622
เข้ารับราชการ	-12623
สถาบันอุดมศึกษา	-12624
ระบอบประชาธิปไตย	-12625
down	-12626
ตราด	-12627
▁ฟิน	-12628
▁โทะ	-12629
หมิ่น	-12630
ของทาง	-12631
▁ชาตรี	-12632
เข้าฉาย	-12633
▁แรงม้า	-12634
▁และนํา	-12635
นักแสดงชาย	-12636
ปลาน้ําจืด	-12637
ในการพัฒนา	-12638
ได้รับการยกย่อง	-12639
ขล	-12640
แช่	-12641
ทันต	-12642
▁has	-12643
▁ไข่	-12644
overn	-12645
umber	-12646
▁webs	-12647
▁ไมค์	-12648
แก่นัก	-12649
▁อาจจะ	-12650
ตั้งแต่อายุ	-12651
%)	-12652
asy	-12653
เระ	-12654
ever	-12655
ามติ	-12656
่ําร	-12657
▁fer	-12658
▁จาง	-12659
กว่าร	-12660
▁like	-12661
ference	-12662
ทําพิธี	-12663
ยุคกลาง	-12664
แสดงถึง	-12665
ใต้น้ํา	-12666
รถโดยสาร	-12667
▁การ์ตูน	-12668
อิทธิพลต่อ	-12669
ราชนครินทร์	-12670
▁นักวิชาการ	-12671
thai	-12672
▁เหย	-12673
▁เสนา	-12674
ทองแดง	-12675
นางสาว	-12676
▁แม้จะ	-12677
อาระเบีย	-12678
ผลกระทบต่อ	-12679
▁แมทช์การปล้ํา	-12680
เน่	-12681
best	-12682
ยูกิ	-12683
▁อิศ	-12684
▁(0):	-12685
สําโรง	-12686
สมัยที่	-12687
เป็นโรค	-12688
โปรดให้	-12689
มีชื่อว่า	-12690
เดือนตุลาคม	-12691
ขั้วโลกเหนือ	-12692
tw	-12693
กิม	-12694
ดู่	-12695
pire	-12696
อ็อง	-12697
▁run	-12698
▁ธนะ	-12699
นินจา	-12700
▁east	-12701
ให้นาย	-12702
สะเทือน	-12703
);	-12704
ker	-12705
ุติ	-12706
มรณะ	-12707
ัชชา	-12708
นิทาน	-12709
ฮอลลี	-12710
กันเอง	-12711
โอซะกะ	-12712
ในพิธี	-12713
ให้เธอ	-12714
▁saint	-12715
คาสเซิล	-12716
พบได้ใน	-12717
ยั่งยืน	-12718
▁เกาหลีใต้	-12719
เจ้าจอมมารดา	-12720
ันต	-12721
โจ้	-12722
▁ha	-12723
ก็อต	-12724
▁แซม	-12725
หยุ่น	-12726
ดมินตัน	-12727
ดังนั้น	-12728
ชลประทาน	-12729
ตัวหนึ่ง	-12730
▁ปีต่อมา	-12731
ที่สวยงาม	-12732
อภิสิทธิ์	-12733
เชื้อชาติ	-12734
ภาคี	-12735
ระดม	-12736
▁tri	-12737
▁แก่	-12738
ชนชาติ	-12739
ลําพัง	-12740
▁space	-12741
▁ศึกษา	-12742
ควอนตัม	-12743
ใหญ่และ	-12744
▁channel	-12745
กะเหรี่ยง	-12746
ทวีปเอเชีย	-12747
▁มีทั้งหมด	-12748
รัฐสิ้นสภาพ	-12749
เพื่อป้องกัน	-12750
▁เทศบาลเมือง	-12751
ตั้งอยู่ทางทิศ	-12752
งอย	-12753
บัต	-12754
ัฏฐ	-12755
fect	-12756
ชุ่ม	-12757
แอ่ง	-12758
▁gal	-12759
▁โซล	-12760
ราวาส	-12761
ฐานันดร	-12762
อื่นที่	-12763
เต็มตัว	-12764
เวียนนา	-12765
ไว้เป็น	-12766
▁season	-12767
ชานเมือง	-12768
▁จะมีการ	-12769
เป็นคนที่	-12770
นักแสดงนํา	-12771
เป็นหัวหน้า	-12772
มอร์นิงมุซุเมะ	-12773
''(	-12774
เฒ่า	-12775
โฆษก	-12776
ยาเธอ	-12777
เลนส์	-12778
หลงรัก	-12779
▁earth	-12780
▁เธอยัง	-12781
▁ในระบบ	-12782
ไว้วางใจ	-12783
▁องค์ชาย	-12784
ของรายการ	-12785
ในโครงการ	-12786
head	-12787
oney	-12788
ภูธร	-12789
มิโน	-12790
แก่ม	-12791
▁eth	-12792
สังข์	-12793
แบตเต	-12794
ักชั่น	-12795
กประสงค์	-12796
▁ทั้งยัง	-12797
▁เกิดขึ้น	-12798
ปฏิสังขรณ์	-12799
นักแสดงหญิง	-12800
ผู้รักษาประตู	-12801
พระบรมมหาราชวัง	-12802
ียอด	-12803
▁มาส	-12804
▁home	-12805
▁เน้น	-12806
นักโทษ	-12807
ฮ่องสอน	-12808
ปล่อยตัว	-12809
โปรเตสแตน	-12810
การสื่อสาร	-12811
ิตติมศักดิ์	-12812
ประศาสนศาสตร์	-12813
กรุงรัตนโกสินทร์	-12814
จังหวัดเชียงใหม่	-12815
0;	-12816
wr	-12817
ะฮ์	-12818
โบน	-12819
▁hd	-12820
ตรึง	-12821
โลว์	-12822
▁ซิม	-12823
▁used	-12824
ข้อต่อ	-12825
เปื้อน	-12826
อภิปราย	-12827
▁เชื่อว่า	-12828
นครนิวยอร์ก	-12829
ประมวลกฎหมาย	-12830
ใบ้	-12831
มาด้วย	-12832
▁แอฟริ	-12833
เพล็กซ์	-12834
ทางหลวงหมายเลข	-12835
ไทยพรีเมียร์ลีก	-12836
ก็น	-12837
บ่าย	-12838
ว่าน	-12839
▁dom	-12840
▁log	-12841
▁อิล	-12842
ปาล์ม	-12843
ที่เรา	-12844
รมงกุฎ	-12845
บกพร่อง	-12846
▁และอาจ	-12847
ประจักษ์	-12848
ที่ลากจาก	-12849
ผู้ตัดสิน	-12850
▁เมืองทอง	-12851
ที่มีความสําคัญ	-12852
บางส่วนของตําบล	-12853
๊ต	-12854
ร็อง	-12855
▁แคน	-12856
ด้านใน	-12857
มิวนิก	-12858
ได้ร่วม	-12859
▁august	-12860
▁เป็นชาว	-12861
สูงสุดที่	-12862
▁ในจํานวน	-12863
ชายฝั่งทะเล	-12864
เป็นศูนย์กลาง	-12865
จก	-12866
ป้า	-12867
▁==	-12868
ขยับ	-12869
ไฟท์	-12870
▁ซัม	-12871
▁น่า	-12872
ฟาเอล	-12873
กาญจนา	-12874
ใหญ่ใน	-12875
▁มีทั้ง	-12876
▁america	-12877
ส่วนบุคคล	-12878
อยู่ในเขต	-12879
หลายประเทศ	-12880
และเครื่อง	-12881
ผู้สนับสนุน	-12882
▁development	-12883
pn	-12884
ร้าว	-12885
แนวนอน	-12886
▁ชุดที่	-12887
▁ได้ทําการ	-12888
td	-12889
บะระ	-12890
วงศา	-12891
สันต	-12892
หยาบ	-12893
เถิด	-12894
วาร์ด	-12895
▁only	-12896
ความดี	-12897
งานที่	-12898
▁ออกจาก	-12899
ศรีลังกา	-12900
โครโมโซม	-12901
ของกระดูก	-12902
ของสหราชอาณาจักร	-12903
รักษาความปลอดภัย	-12904
ope	-12905
แคป	-12906
วาร์	-12907
ฟีฟ่า	-12908
ักดิ์	-12909
▁vict	-12910
ทางน้ํา	-12911
นําไปใช้	-12912
เป็นระยะ	-12913
▁ใช้เวลา	-12914
มักจะเป็น	-12915
เหลือเพียง	-12916
▁ทําให้เขา	-12917
▁เส้นลองจิจูด	-12918
can	-12919
หนุ	-12920
คุณา	-12921
โคลง	-12922
thing	-12923
ปิโตร	-12924
ไอดอล	-12925
▁next	-12926
▁นิโคล	-12927
▁โดยมาก	-12928
มหากรุณา	-12929
ออกไปจาก	-12930
▁จังหวัดขอนแก่น	-12931
./	-12932
แบก	-12933
▁ip	-12934
หมอน	-12935
อิชิ	-12936
▁มาย	-12937
ตกรอบ	-12938
ยกที่	-12939
หันไป	-12940
สาธิราช	-12941
ออกแบบโดย	-12942
มีขนาดใหญ่	-12943
ความเร็วสูง	-12944
▁เป็นบุตรของ	-12945
ตํารวจแห่งชาติ	-12946
▁เนื่องจากเป็น	-12947
ิร	-12948
oria	-12949
▁พิษ	-12950
วัตต์	-12951
อดีตร	-12952
ท้าทาย	-12953
รําลึก	-12954
▁แต่ได้	-12955
ที่ยังไม่	-12956
พระราชนิพนธ์	-12957
เนื่องจากการ	-12958
ลช	-12959
พฤกษ	-12960
อานา	-12961
▁ออน	-12962
นโรดม	-12963
ราชย์	-12964
ามารดา	-12965
ต่อหน้า	-12966
▁พระบรม	-12967
▁studies	-12968
เกรกอเรียน	-12969
เป็นอาจารย์	-12970
▁collection	-12971
▁จากโรงเรียน	-12972
เป็นอันดับที่	-12973
ชิงแชมป์ต่อไปนี้	-12974
เพื่อประชาธิปไตย	-12975
ฟอน	-12976
ษฎา	-12977
กิ้ง	-12978
ัมน์	-12979
เปรม	-12980
แพ่ง	-12981
▁lar	-12982
พระเนตร	-12983
ศาลเจ้า	-12984
สักการะ	-12985
▁museum	-12986
▁ปริมาณ	-12987
▁เบื้อง	-12988
กลับบ้าน	-12989
▁ซึ่งอยู่	-12990
กําเนิดของ	-12991
มอบหมายให้	-12992
เพื่อนบ้าน	-12993
▁เลขาธิการ	-12994
ในภาษาอังกฤษ	-12995
เพลงประกอบละคร	-12996
เอย	-12997
โฆษ	-12998
จะไป	-12999
ดินา	-13000
▁apr	-13001
▁นาน	-13002
ราวปี	-13003
▁days	-13004
▁ฟอร์	-13005
รักษาส	-13006
สมมุติ	-13007
หน้าอก	-13008
และยัง	-13009
▁second	-13010
ในยุคนั้น	-13011
ที่ไม่สามารถ	-13012
จักรพรรดิมาลา	-13013
ในมหาวิทยาลัย	-13014
เข้าร่วมแข่งขัน	-13015
เฮด	-13016
แยง	-13017
ม่าน	-13018
▁คิว	-13019
เนียว	-13020
เจาะจง	-13021
▁00.0%	-13022
จักรพรร	-13023
สัมพัทธ	-13024
เสด็จไป	-13025
▁website	-13026
ในด้านการ	-13027
ใกล้ชิดกับ	-13028
▁ประกอบกับ	-13029
▁นักมวยสากล	-13030
รัฐและดินแดน	-13031
▁จังหวัดชลบุรี	-13032
ria	-13033
ขนิ	-13034
ถาป	-13035
เฮา	-13036
ober	-13037
ตุ้ง	-13038
เฟรด	-13039
แท็ก	-13040
▁now	-13041
▁sea	-13042
center	-13043
พิจารณ	-13044
▁กลิ่น	-13045
▁จะใช้	-13046
จริงว่า	-13047
ทุกชนิด	-13048
ย่อยของ	-13049
อย่างมี	-13050
▁อําเภอก	-13051
ขั้วโลกใต้	-13052
ในต่างประเทศ	-13053
ราชบัณฑิตยสถาน	-13054
zo	-13055
เยน	-13056
โลน	-13057
สโตน	-13058
▁เทร	-13059
มาตย์	-13060
▁หนัก	-13061
ภาพวาด	-13062
วางขาย	-13063
แยกจาก	-13064
▁ของปี	-13065
ฝึกซ้อม	-13066
▁family	-13067
▁บัณฑิต	-13068
▁ขบวนการ	-13069
▁อุณหภูมิ	-13070
แห่งฝรั่งเศส	-13071
นักแสดงภาพยนตร์	-13072
อส์	-13073
เวฟ	-13074
▁ra	-13075
วลัย	-13076
อริส	-13077
าร่า	-13078
▁mur	-13079
ปัญหาส	-13080
ช่องแคบ	-13081
ปราศจาก	-13082
▁ขึ้นมา	-13083
▁ทีมที่	-13084
อากาศเอก	-13085
▁อีกครั้ง	-13086
ขึ้นเมื่อปี	-13087
เพียงเล็กน้อย	-13088
ให้ความสําคัญ	-13089
cel	-13090
sal	-13091
ube	-13092
.00)	-13093
▁เบส	-13094
กันมา	-13095
▁econ	-13096
▁fall	-13097
กาญจน์	-13098
▁beaut	-13099
-000000	-13100
▁มากมาย	-13101
อีกต่อไป	-13102
ใช้อักษร	-13103
▁general	-13104
▁ในแต่ละ	-13105
แอลกอฮอล์	-13106
ความสําคัญ	-13107
▁หรือเรียก	-13108
๋ม	-13109
ลัส	-13110
ศัล	-13111
สมุ	-13112
ชิลี	-13113
กรุ๊ป	-13114
ัสติน	-13115
ทีมของ	-13116
ลาลีกา	-13117
▁โฆษณา	-13118
ไม่ปรากฏ	-13119
ของนักบุญ	-13120
โดยเฉลี่ย	-13121
ความเข้าใจ	-13122
วิทยาศาสตร์ว่า	-13123
bit	-13124
จลา	-13125
ไท่	-13126
▁หิ	-13127
super	-13128
▁เว้น	-13129
ชิคาโก	-13130
เกินกว่า	-13131
▁ประเพณี	-13132
ศิลปวัฒนธรรม	-13133
สิทธิมนุษยชน	-13134
ui	-13135
ามวย	-13136
คว่ํา	-13137
ุรกิจ	-13138
▁band	-13139
▁plan	-13140
▁สปีด	-13141
บุคคลใน	-13142
ที่บริเวณ	-13143
▁ครั้งแรก	-13144
โอรสาธิราช	-13145
เฮลิคอปเตอร์	-13146
▁0-00000-000	-13147
▁$	-13148
pan	-13149
ยิว	-13150
▁แว	-13151
ล่อง	-13152
อุทก	-13153
istry	-13154
ที่ผู้	-13155
โกเลีย	-13156
ลุมพินี	-13157
ของวัตถุ	-13158
▁เป็นต้นไป	-13159
ที่เพิ่มขึ้น	-13160
▁ในปีเดียวกัน	-13161
ขุ	-13162
-0)	-13163
สกาย	-13164
▁dur	-13165
ament	-13166
ผลของ	-13167
เมตตา	-13168
เอคัพ	-13169
▁สิงห	-13170
นางเธอ	-13171
ที่ขึ้น	-13172
ที่พัฒนา	-13173
ทุกครั้ง	-13174
▁งานวิจัย	-13175
▁ตั้งอยู่บน	-13176
กสิ	-13177
วาฬ	-13178
▁ปฏ	-13179
สงขล	-13180
ขาคณิต	-13181
อัลบัม	-13182
▁ในรัฐ	-13183
เรสต์ลิง	-13184
▁จะทําให้	-13185
สภามหาวิทยาลัย	-13186
จ่า	-13187
นัม	-13188
วจน	-13189
with	-13190
▁แดง	-13191
วราราม	-13192
วาเกีย	-13193
▁00/00	-13194
▁organ	-13195
เหนือกว่า	-13196
▁แต่งตั้ง	-13197
นักแต่งเพลง	-13198
เปรียบเทียบกับ	-13199
bu	-13200
ขัต	-13201
ware	-13202
well	-13203
▁women	-13204
ptember	-13205
แย่งชิง	-13206
▁ซีซั่น	-13207
ขีปนาวุธ	-13208
▁และสร้าง	-13209
ที่ชื่อว่า	-13210
บรมโอรสาธิราช	-13211
เนร	-13212
แอค	-13213
▁lou	-13214
ดัชนี	-13215
▁camp	-13216
▁ther	-13217
ที่อาจ	-13218
มียอดขาย	-13219
▁รถไฟฟ้า	-13220
ในนิตยสาร	-13221
ได้มีโอกาส	-13222
▁นอกเหนือจาก	-13223
อภิเษกสมรสกับ	-13224
ฟื้นฟูศิลปวิทยา	-13225
ogn	-13226
กุด	-13227
อสุ	-13228
▁อภ	-13229
ปัญห	-13230
▁lee	-13231
น่าจะ	-13232
ที่ติด	-13233
่วมกับ	-13234
อาณาจัก	-13235
คล้ายกัน	-13236
ฟลอเรนซ์	-13237
มหานิกาย	-13238
วัตถุดิบ	-13239
อีกหนึ่ง	-13240
โดยไม่มี	-13241
▁television	-13242
ขนาดเล็กกว่า	-13243
การแข่งขันกีฬา	-13244
▁ออกอากาศทางช่อง	-13245
ฮอป	-13246
ินา	-13247
๊อบ	-13248
ข้อม	-13249
เซ็ง	-13250
ไหร่	-13251
▁คาน	-13252
▁คณิต	-13253
▁ศาลา	-13254
▁หมวด	-13255
ข้าศึก	-13256
นักเตะ	-13257
พระบาท	-13258
พวกเธอ	-13259
▁เจ้าน	-13260
ซิดนีย์	-13261
ถึงแก่อ	-13262
ทซ์	-13263
ฟาก	-13264
▁fu	-13265
ริ้ว	-13266
แก้ม	-13267
มากับ	-13268
ington	-13269
จับตัว	-13270
ภักดิ์	-13271
อยู่ใต้	-13272
▁oxford	-13273
และเมือง	-13274
และทําให้	-13275
▁สันนิษฐาน	-13276
โรงเรียนบ้าน	-13277
osp	-13278
ฟส์	-13279
▁รั	-13280
black	-13281
จลาจล	-13282
มาที่	-13283
ตุ๊กตา	-13284
▁สัญญา	-13285
▁นักวิจัย	-13286
▁อําเภอแม่	-13287
▁นักการเมือง	-13288
เป็นผู้จัดการ	-13289
ih	-13290
บัก	-13291
chan	-13292
enth	-13293
ธิโอ	-13294
▁ยืน	-13295
จงรัก	-13296
สนทนา	-13297
ยืนต้น	-13298
▁queen	-13299
การตลาด	-13300
จําเพาะ	-13301
ร้านค้า	-13302
▁control	-13303
ในการแสดง	-13304
เปรียญธรรม	-13305
▁ในพื้นที่	-13306
ของครอบครัว	-13307
iff	-13308
โกน	-13309
ress	-13310
▁rob	-13311
▁vis	-13312
▁แวน	-13313
▁มีผล	-13314
ดรอยด์	-13315
ฟุตซอล	-13316
ที่มีต่อ	-13317
นี้ได้รับการ	-13318
!"	-13319
ays	-13320
ona	-13321
▁ทร	-13322
▁อม	-13323
เพียร	-13324
ตามปกติ	-13325
ทําอะไร	-13326
รุ่นแรก	-13327
เปรี้ยว	-13328
ของประชากร	-13329
ที่น่าสนใจ	-13330
ทางพันธุกรรม	-13331
▁และในวันที่	-13332
แต่งตั้งให้เป็น	-13333
เชฟ	-13334
โบร	-13335
แซ็ง	-13336
▁mid	-13337
ข้อหา	-13338
โอลิน	-13339
ตีความ	-13340
มองโกล	-13341
เท่าใด	-13342
คอนสแตน	-13343
▁อาทิตย์	-13344
ยูโกสลาเวีย	-13345
▁ปีการศึกษา	-13346
▁นักแสดงชาวไทย	-13347
ฟาน	-13348
สุต	-13349
เก็น	-13350
▁key	-13351
▁link	-13352
▁สมิธ	-13353
พลังของ	-13354
เป็นส่วน	-13355
คู่ต่อสู้	-13356
ได้รับคํา	-13357
▁เป็นอาหาร	-13358
สันนิษฐานว่า	-13359
()	-13360
งอก	-13361
ธีร	-13362
▁รส	-13363
time	-13364
ซิตี้	-13365
โตเฟอร์	-13366
ในเลือด	-13367
ของสังคม	-13368
ระลึกถึง	-13369
เสียก่อน	-13370
▁ตําบลนา	-13371
▁แอฟริกา	-13372
นักธุรกิจ	-13373
ชื่อว่าเป็น	-13374
หน่วยความจํา	-13375
แห่งหนึ่งของ	-13376
ที่ประกอบด้วย	-13377
สท	-13378
▁°	-13379
ล้น	-13380
ยูเร	-13381
ลงบน	-13382
เว้า	-13383
▁tre	-13384
ทําไม	-13385
▁foot	-13386
▁ital	-13387
สายฟ้า	-13388
▁ศักดิ์	-13389
▁illustr	-13390
▁ผู้หญิง	-13391
ทรงพระเยาว์	-13392
โปรเตสแตนต์	-13393
▁เป็นจํานวน	-13394
การเคลื่อนไหว	-13395
มรณ	-13396
olia	-13397
เบ้ง	-13398
ished	-13399
บลุ่ม	-13400
มนุษย	-13401
เศียร	-13402
จระเข้	-13403
นักล่า	-13404
ากฎหมาย	-13405
▁ผู้ใช้	-13406
ประชามติ	-13407
เป็นบุตร	-13408
ในสัปดาห์	-13409
ลงสมัครรับ	-13410
ปริยัติธรรม	-13411
ิ์	-13412
สอย	-13413
ห่ม	-13414
iger	-13415
เทพี	-13416
ําไป	-13417
▁แรม	-13418
กลางปี	-13419
แปรรูป	-13420
พระบิดา	-13421
▁ได้เข้า	-13422
ของอาณาจักร	-13423
เดียวเท่านั้น	-13424
ตบ	-13425
กลี	-13426
นูน	-13427
เถา	-13428
เพ็	-13429
▁*0	-13430
inus	-13431
ชายน	-13432
ด้วง	-13433
เข่า	-13434
▁ร็อค	-13435
กลยุทธ์	-13436
อสังหาร	-13437
ใหม่ว่า	-13438
▁โดยนํา	-13439
ใหญ่กว่า	-13440
▁charles	-13441
▁แต่แล้ว	-13442
▁ได้เป็น	-13443
านครินทร์	-13444
▁ความเป็น	-13445
▁ในขณะนั้น	-13446
▁ในภาพยนตร์	-13447
คอบ	-13448
▁ยง	-13449
มีขน	-13450
ากุล	-13451
▁ตึก	-13452
▁พิศ	-13453
พิพาท	-13454
ัฐบาล	-13455
เคียน	-13456
▁แจ็ค	-13457
▁ในบท	-13458
americ	-13459
กัมมัน	-13460
ซุเอลา	-13461
สี่แยก	-13462
เซิร์ฟ	-13463
▁เวิร์	-13464
ชื่อตาม	-13465
รูปปั้น	-13466
ฬาลงกรณ	-13467
อ่างทอง	-13468
คาดการณ์	-13469
เพาะปลูก	-13470
ธรณีวิทยา	-13471
กําลังทหาร	-13472
ประกอบพิธี	-13473
▁คณะแพทยศาสตร์	-13474
▁นอกจากนี้แล้ว	-13475
,''	-13476
kyo	-13477
umi	-13478
ดาย	-13479
ธนา	-13480
วอย	-13481
วัฏ	-13482
▁อิง	-13483
ฤดูฝน	-13484
อห์นน	-13485
▁วิทยา	-13486
ันติภาพ	-13487
▁ควบคุม	-13488
คําศัพท์	-13489
เมื่ออายุ	-13490
▁มีพี่น้อง	-13491
ออกกําลังกาย	-13492
ทรัพยากรธรรมชาติ	-13493
งวด	-13494
นิร	-13495
▁ic	-13496
clud	-13497
ือกี	-13498
▁cop	-13499
▁เอด	-13500
ฐานทัพ	-13501
▁เซนต์	-13502
เขมรแดง	-13503
▁little	-13504
ภาพลักษณ์	-13505
เป็นผู้ชนะ	-13506
ในการทํางาน	-13507
▁นักแต่งเพลง	-13508
ยุต	-13509
ลีลา	-13510
ในบท	-13511
▁oct	-13512
▁ลอน	-13513
ซอรัส	-13514
นเรศว	-13515
หอคอย	-13516
ประลอง	-13517
รักเธอ	-13518
▁กระแส	-13519
ขึ้นและ	-13520
หลวงปู่	-13521
เล็กกว่า	-13522
▁ที่ตั้ง	-13523
เซี่ยงไฮ้	-13524
ปากแม่น้ํา	-13525
▁รวมถึงการ	-13526
ฝั่งแม่น้ํา	-13527
▁เกิดจากการ	-13528
▁เป็นสมาชิก	-13529
ปป	-13530
ด็อก	-13531
วิภา	-13532
▁คาม	-13533
▁ยาม	-13534
▁อาส	-13535
ชาเปล	-13536
▁oper	-13537
สามมิติ	-13538
เรเนียน	-13539
▁ได้ทรง	-13540
สนุกสนาน	-13541
▁น้ํามัน	-13542
อาสาสมัคร	-13543
สังคมศาสตร์	-13544
เจต	-13545
หัตถ	-13546
เกย์	-13547
▁dvd	-13548
▁sky	-13549
บาโรก	-13550
▁mach	-13551
ถ่ายรูป	-13552
ากรรไกร	-13553
▁ร้องโดย	-13554
▁ใกล้กับ	-13555
ที่ตั้งอยู่	-13556
เดือนมีนาคม	-13557
ror	-13558
ลาฟ	-13559
▁ts	-13560
อ้าย	-13561
ิกุล	-13562
▁สตรี	-13563
กุงะวะ	-13564
คนนั้น	-13565
▁พระมหา	-13566
▁เทศกาล	-13567
ครุศาสตร์	-13568
▁จนทําให้	-13569
▁ตารางเมตร	-13570
แอนตาร์กติกา	-13571
▁ปะ	-13572
ล้ํา	-13573
▁ฮ่อง	-13574
เพื่อนๆ	-13575
องครักษ์	-13576
เสียงของ	-13577
ในการจัด	-13578
▁ดยุคแห่ง	-13579
ได้รับชัยชนะ	-13580
พรรคพลังประชาชน	-13581
ก่า	-13582
ทาล	-13583
ศร์	-13584
▁รศ	-13585
▁ham	-13586
ลงสนาม	-13587
สิรินธร	-13588
ของสโมสร	-13589
โปรเจกต์	-13590
การกระทํา	-13591
▁รับบทโดย	-13592
▁หมายเหตุ	-13593
ทหารราบที่	-13594
พระไตรปิฎก	-13595
ภาษาสันสกฤต	-13596
แม่เหล็กไฟฟ้า	-13597
วุ	-13598
อญ	-13599
▁vi	-13600
▁ศร	-13601
ตกใจ	-13602
พีระ	-13603
ัลด์	-13604
▁sat	-13605
▁กิล	-13606
▁สกาย	-13607
กราฟิก	-13608
บรรทัด	-13609
ication	-13610
มิดเดิล	-13611
วันเกิด	-13612
เจ้าคุณ	-13613
▁ส่วนใน	-13614
คริสต์มาส	-13615
มีความหมายว่า	-13616
ota	-13617
ตุง	-13618
พิภพ	-13619
อโศก	-13620
เฟิล	-13621
▁เวน	-13622
กริยา	-13623
สัมมา	-13624
ของภาพ	-13625
รับมือ	-13626
และทํา	-13627
คิดเป็น	-13628
ทัวเนีย	-13629
▁เธอจึง	-13630
เท็จจริง	-13631
จึงทําให้	-13632
ทางกายภาพ	-13633
ในสงครามโลก	-13634
ห้องปฏิบัติการ	-13635
▁เป็นเมืองหลวง	-13636
pat	-13637
เลา	-13638
▁ชวน	-13639
ลงสู่	-13640
เจตนา	-13641
▁meth	-13642
แทกทีม	-13643
▁กาญจน	-13644
ราเอมอน	-13645
จากอัลบั้ม	-13646
และปริมณฑล	-13647
▁สถิติการชก	-13648
▁ประเทศอิตาลี	-13649
เอนเตอร์เทนเมนต์	-13650
=0	-13651
hem	-13652
una	-13653
ตาส	-13654
พรต	-13655
เนป	-13656
ique	-13657
เจือ	-13658
เซ็ต	-13659
▁map	-13660
▁แพน	-13661
มิให้	-13662
ในทีม	-13663
ตากสิน	-13664
รับการ	-13665
เขี้ยว	-13666
▁final	-13667
แซนไทน์	-13668
▁george	-13669
▁พินอิน	-13670
▁academy	-13671
รมหาวิหาร	-13672
▁และกลุ่ม	-13673
แนวความคิด	-13674
แห่งเดนมาร์ก	-13675
อสังหาริมทรัพย์	-13676
ชิร	-13677
ซ่ง	-13678
ตุส	-13679
พุต	-13680
▁งู	-13681
anda	-13682
ช็อก	-13683
▁เติ	-13684
ประมูล	-13685
หน้าจอ	-13686
ของเส้น	-13687
จับสลาก	-13688
รมหาราช	-13689
จริยธรรม	-13690
▁ต่อมาใน	-13691
ปรับอากาศ	-13692
แห่งแรกของ	-13693
โทรศัพท์มือถือ	-13694
0-	-13695
(0)	-13696
pet	-13697
็บบ	-13698
ปกรณ	-13699
แอ็ค	-13700
▁cre	-13701
ลงไปใน	-13702
เมเนีย	-13703
และทาง	-13704
▁นิกาย	-13705
ด้วยโรค	-13706
นครนายก	-13707
▁บริการ	-13708
▁และทาง	-13709
เนชันแนล	-13710
ภาษากลุ่ม	-13711
▁ก๊	-13712
โซโท	-13713
ไชยา	-13714
▁ปฐม	-13715
▁แชน	-13716
ถาบัน	-13717
ฟีลด์	-13718
วรรค์	-13719
ขนมปัง	-13720
จักรภพ	-13721
เถรวาท	-13722
▁มังกร	-13723
นี้ด้วย	-13724
▁ดอกไม้	-13725
รับสมัคร	-13726
ที่ว่าการ	-13727
ใช้สําหรับ	-13728
▁ตามปฏิทิน	-13729
เพลงลูกทุ่ง	-13730
▁รองชนะเลิศ	-13731
สงขลานครินทร์	-13732
▁จังหวัดเชียงราย	-13733
cu	-13734
:00)	-13735
มาลี	-13736
▁จิม	-13737
▁ปีก	-13738
▁ย่อ	-13739
▁เบร	-13740
▁ยุคล	-13741
จึงทรง	-13742
ภาษานี้	-13743
ขนส่งมวลชน	-13744
พระองค์เอง	-13745
▁ชั้นมหาวชิ	-13746
เดือนกันยายน	-13747
คริสต์ศาสนิกชน	-13748
leg	-13749
ขืน	-13750
ยุว	-13751
หวาด	-13752
านํา	-13753
เขาม	-13754
นอร์ท	-13755
วนั้น	-13756
▁น้อย	-13757
เกลียว	-13758
ที่สนใจ	-13759
▁effect	-13760
ข้อจํากัด	-13761
อย่างเช่น	-13762
ขึ้นมาใหม่	-13763
ที่แตกต่าง	-13764
เขียนหนังสือ	-13765
hib	-13766
กรง	-13767
▁ev	-13768
▁ธา	-13769
▁ยาง	-13770
เม้นท์	-13771
ไบเบิล	-13772
▁สนธิส	-13773
การวิจัย	-13774
แยกออกจาก	-13775
พรรคชาติไทย	-13776
▁แห่งราชวงศ์	-13777
gm	-13778
cell	-13779
ลงจาก	-13780
สซาชู	-13781
▁face	-13782
▁พรรณ	-13783
ร้อยปี	-13784
ปลักษณ์	-13785
ฟลอริดา	-13786
▁ปรัชญา	-13787
จอร์จที่	-13788
นวัตกรรม	-13789
▁ซึ่งเขา	-13790
▁ชั้นประถ	-13791
▁ไม่ปรากฏ	-13792
เดือนพฤษภาคม	-13793
จํานวนประชากร	-13794
▁เป็นครั้งแรก	-13795
▁”	-13796
ief	-13797
ขวด	-13798
นุช	-13799
พัส	-13800
แห่	-13801
▁if	-13802
ลัทธ	-13803
วยัง	-13804
มันน์	-13805
▁phot	-13806
▁เพ็ญ	-13807
เจ้าราช	-13808
▁วัดศรี	-13809
▁ได้ออก	-13810
ท่ามกลาง	-13811
รามาธิบดี	-13812
สหพันธรัฐ	-13813
วรมหาวิหาร	-13814
พระราชกฤษฎีกา	-13815
ไง	-13816
พอน	-13817
▁ka	-13818
หมี่	-13819
ูทิศ	-13820
anish	-13821
ไอริช	-13822
▁moon	-13823
▁ป้าย	-13824
ission	-13825
▁image	-13826
ฝ่ายเหนือ	-13827
ที่สมบูรณ์	-13828
สถาปนาเป็น	-13829
สําหรับผู้	-13830
▁ภาษาอังกฤษ	-13831
▁เริ่มออกอากาศ	-13832
:''	-13833
bel	-13834
วิมล	-13835
เอเธ	-13836
▁def	-13837
▁จุน	-13838
under	-13839
▁แข่ง	-13840
สีเงิน	-13841
เต้นรํา	-13842
ภาษาสเปน	-13843
พัฒนาระบบ	-13844
▁princess	-13845
ในทวีปยุโรป	-13846
ทางตอนใต้ของ	-13847
▁คณะรัฐมนตรี	-13848
▁จักรพรรดินี	-13849
ben	-13850
ues	-13851
ชวล	-13852
เพร	-13853
โกง	-13854
ไฟฟ	-13855
▁เสก	-13856
เกียร	-13857
▁เบญจ	-13858
ประชวร	-13859
ยินยอม	-13860
▁ในอัลบั้ม	-13861
เดือนเมษายน	-13862
อยู่ที่เมือง	-13863
get	-13864
nor	-13865
ทัส	-13866
ครีม	-13867
▁สเป	-13868
มิใช่	-13869
เตี้ย	-13870
ไอทีวี	-13871
▁สีแดง	-13872
กระต่าย	-13873
มิเนียม	-13874
เพื่อหา	-13875
ยิงประตู	-13876
แห่งใหม่	-13877
โรเบิร์ต	-13878
ยึดอํานาจ	-13879
นเรศวรมหาราช	-13880
▁เป็นสถานที่	-13881
ศิลปะการต่อสู้	-13882
งด	-13883
omo	-13884
โกแล	-13885
▁โพร	-13886
าวนาน	-13887
โคนัน	-13888
มัสยิด	-13889
ตํารวจโท	-13890
ปฏิกิริย	-13891
ออกมาได้	-13892
เพลงเปิด	-13893
▁ความหมาย	-13894
▁ด้านหลัง	-13895
▁ประเทศเกาหลีใต้	-13896
์ฟ	-13897
โพด	-13898
asia	-13899
▁เรน	-13900
▁โอก	-13901
ดีเซล	-13902
ากรุง	-13903
▁bell	-13904
▁ตุ๊ก	-13905
ตอนล่าง	-13906
รองเท้า	-13907
ที่กล่าว	-13908
▁เกิดที่	-13909
▁เป็นรูป	-13910
ในช่วงต้น	-13911
▁กรมพระยา	-13912
เกิดขึ้นใน	-13913
เภสัชศาสตร์	-13914
.),	-13915
die	-13916
บีม	-13917
อาล	-13918
rama	-13919
วาสี	-13920
อารา	-13921
เบ็น	-13922
คล้ํา	-13923
อินทร	-13924
▁เธอก็	-13925
เต็มวัย	-13926
▁และทํา	-13927
ที่จะใช้	-13928
ิย์	-13929
utch	-13930
ข่าน	-13931
สแกน	-13932
▁คัพ	-13933
:0000	-13934
▁acid	-13935
ซีซั่น	-13936
▁หรืออาจ	-13937
ทางกฎหมาย	-13938
เรียบง่าย	-13939
และนักแสดง	-13940
▁0000/0000	-13941
สืบเชื้อสาย	-13942
▁โปรดเกล้าฯ	-13943
ผ่านศูนย์กลาง	-13944
▁จังหวัดสงขลา	-13945
ไอ้	-13946
▁hor	-13947
align	-13948
ories	-13949
บ่งบอก	-13950
ั่นเอง	-13951
เพศชาย	-13952
▁และมัก	-13953
▁ที่อยู่	-13954
▁ส่วนมาก	-13955
เล่นดนตรี	-13956
▁ด้วยเหตุนี้	-13957
▁และกลายเป็น	-13958
▁เนื่องจากการ	-13959
๐๐	-13960
▁?	-13961
hol	-13962
reg	-13963
สุม	-13964
ารู	-13965
▁ss	-13966
rome	-13967
เชษฐ	-13968
เบย์	-13969
▁old	-13970
▁นิน	-13971
ระนาบ	-13972
เตียง	-13973
▁form	-13974
▁คีย์	-13975
ขึ้นสู่	-13976
ที่เปิด	-13977
มาตรการ	-13978
อัจฉริยะ	-13979
จุฬาลงกรณ	-13980
ผิดกฎหมาย	-13981
เครื่องกล	-13982
▁มีผู้พูด	-13983
ากิตติมศักดิ์	-13984
▁ประเทศแคนาดา	-13985
.:	-13986
asa	-13987
tex	-13988
ทีละ	-13989
ผลิตร	-13990
โรกาส	-13991
▁opbf	-13992
▁ปิ่น	-13993
▁เล็ก	-13994
เพี้ยน	-13995
ครูใหญ่	-13996
กําลังจะ	-13997
▁เขียนบท	-13998
ทั้งหมดของ	-13999
เตอร์เรเนียน	-14000
mb	-14001
กั	-14002
▁๖	-14003
sec	-14004
บุษ	-14005
เยล	-14006
ไวย	-14007
วร้าย	-14008
แก่การ	-14009
การขนส่ง	-14010
ิวเคลียร์	-14011
ป้องกันตัว	-14012
อันดับหนึ่ง	-14013
พระราชทานเพลิง	-14014
โมก	-14015
▁//	-14016
▁ob	-14017
ครัด	-14018
จิวะ	-14019
แล่น	-14020
▁cle	-14021
▁ken	-14022
itive	-14023
หฤทัย	-14024
เชลล์	-14025
▁ของวง	-14026
เด่นชัด	-14027
กระหว่าง	-14028
ที่มีอายุ	-14029
เนชั่นแนล	-14030
ไบแซนไทน์	-14031
▁กล่าวถึง	-14032
▁อาทิเช่น	-14033
ใหม่อีกครั้ง	-14034
มหากรุณาธิคุณ	-14035
เครื่องปฏิกรณ์	-14036
▁obs	-14037
iform	-14038
หมาป่า	-14039
▁วอร์ส	-14040
เดิมของ	-14041
ทหารสูงสุด	-14042
▁ก่อนคริสตกาล	-14043
ุกุ	-14044
ency	-14045
วอล์	-14046
อิ่ม	-14047
เทิด	-14048
▁nav	-14049
ค่อยๆ	-14050
ารุ่น	-14051
วโรกาส	-14052
แพร่ภาพ	-14053
ได้เปิด	-14054
ไม่ทราบ	-14055
สซาชูเซต	-14056
โซมาเลีย	-14057
▁สีเขียว	-14058
ในช่วงแรก	-14059
▁republic	-14060
▁การออกแบบ	-14061
▁ขึ้นอยู่กับ	-14062
iii	-14063
mun	-14064
ร์น	-14065
obal	-14066
บ่อน	-14067
ฤทธิ	-14068
โทนี	-14069
▁sen	-14070
▁ชาน	-14071
board	-14072
พยาธิ	-14073
มาร์ค	-14074
▁ป้อม	-14075
บดินทร	-14076
เนรเทศ	-14077
แอปเปิล	-14078
▁ธุรกิจ	-14079
พระบรมศพ	-14080
องคมนตรี	-14081
เมทริกซ์	-14082
▁digital	-14083
ราชวรวิหาร	-14084
ให้ประชาชน	-14085
▁พิบูลสงคราม	-14086
ลิล	-14087
วีน	-14088
will	-14089
ดีเจ	-14090
ุนิยม	-14091
ในวัย	-14092
น้ํานม	-14093
บนเวที	-14094
ซึ่งถูก	-14095
สร้างโดย	-14096
เริ่มแรก	-14097
▁ว่าเป็น	-14098
ที่ประชุม	-14099
ผู้ที่ถูก	-14100
ра	-14101
uri	-14102
แฉก	-14103
sych	-14104
นานา	-14105
แยร์	-14106
บิชอป	-14107
ศักย์	-14108
เทศนา	-14109
▁กรีน	-14110
▁เปีย	-14111
กรานต์	-14112
เวียร์	-14113
ทําด้วย	-14114
เพลงปิด	-14115
ใหญ่มาก	-14116
มีความรู้	-14117
ที่สําคัญของ	-14118
▁นอกจากนั้นแล้ว	-14119
osc	-14120
rel	-14121
นิต	-14122
▁ta	-14123
▁โฉ	-14124
mark	-14125
▁mit	-14126
ดาหาร	-14127
ผลต่อ	-14128
จัดสรร	-14129
อเรชัน	-14130
▁เศรษฐกิจ	-14131
มีลักษณะเป็น	-14132
าวี	-14133
amin	-14134
ยาสุ	-14135
▁wall	-14136
เดินรถ	-14137
ผีเสื้อ	-14138
มันเป็น	-14139
พระมารดา	-14140
พระมเหสี	-14141
รักษาโรค	-14142
▁(00,000	-14143
▁ท่าไม้ตาย	-14144
ประพันธ์โดย	-14145
สี่เหลี่ยมผืนผ้า	-14146
ปอง	-14147
urus	-14148
โมโน	-14149
ภาลัย	-14150
ติวงศ์	-14151
แซ็กท์	-14152
ต่างดาว	-14153
ชาวดัตช์	-14154
▁ท่านได้	-14155
▁เมื่อมี	-14156
เมส	-14157
กระช	-14158
จารี	-14159
คิวบา	-14160
▁also	-14161
ชุดแรก	-14162
พรินซ์	-14163
วันนี้	-14164
▁แล้วน	-14165
เต็มดวง	-14166
แทรกแซง	-14167
ไม่อยาก	-14168
ธิโอเปีย	-14169
แพ้คะแนน	-14170
ที่มีขนาด	-14171
ภัยพิบัติ	-14172
▁และประเทศ	-14173
yu	-14174
log	-14175
อีน	-14176
ควิน	-14177
ชาวน	-14178
หนอน	-14179
กล่อม	-14180
หน่อย	-14181
เพลิน	-14182
ไปโดย	-14183
▁know	-14184
นวิหาร	-14185
เล็กซ์	-14186
ไว้กับ	-14187
ผู้ร่วม	-14188
▁search	-14189
▁ปราโมช	-14190
ของสหรัฐ	-14191
จัดพิมพ์	-14192
วันหนึ่ง	-14193
อาจารย์คณะ	-14194
เล่นฟุตบอล	-14195
ที่สนับสนุน	-14196
▁สาขานักแสดง	-14197
esh	-14198
ocr	-14199
top	-14200
สกา	-14201
๊อด	-14202
▁oh	-14203
▁fif	-14204
▁พงศ์	-14205
ค่าตัว	-14206
แกรมมี	-14207
ดิวิชัน	-14208
ศักดินา	-14209
เรือเอก	-14210
▁secret	-14211
ข้าพเจ้า	-14212
▁เพราะมี	-14213
เป็นโรงเรียน	-14214
ให้การสนับสนุน	-14215
▁เหรียญรัตนาภรณ์	-14216
.-	-14217
ฟง	-14218
๊อ	-14219
cin	-14220
คลอ	-14221
จวบ	-14222
พิศ	-14223
▁mh	-14224
แพ็ค	-14225
▁เรด	-14226
ellow	-14227
รินทร	-14228
อีกสอง	-14229
▁ชื่อของ	-14230
ที่ปรากฏใน	-14231
▁และรางวัล	-14232
ในการปกครอง	-14233
วอลเลย์บอลหญิง	-14234
ศิลปกรรมศาสตร์	-14235
ปต์	-14236
ุดี	-14237
สวิส	-14238
สเปก	-14239
▁set	-14240
แมนจู	-14241
▁flor	-14242
▁เพลย์	-14243
คคอร์ดส	-14244
เป็นชื่อ	-14245
เพียงแต่	-14246
เขาสามารถ	-14247
เลี้ยงเป็น	-14248
ในช่วงปลาย	-14249
ได้เปลี่ยน	-14250
▁ที่เรียกว่า	-14251
ได้เป็นอย่างดี	-14252
มรส	-14253
ตรีก	-14254
ตะกร	-14255
มิยะ	-14256
รสิง	-14257
ัจโจ	-14258
ในใจ	-14259
▁ไต้	-14260
เคชัน	-14261
▁when	-14262
ประกาย	-14263
รวิทยา	-14264
อักขระ	-14265
นอกระบบ	-14266
เป็นจุด	-14267
เลวร้าย	-14268
ชายหนุ่ม	-14269
ลูกศิษย์	-14270
อย่างง่าย	-14271
▁การพัฒนา	-14272
▁หน่วยงาน	-14273
▁ในช่วงปี	-14274
เป็นสถานที่	-14275
เรียกร้องให้	-14276
ที่ตั้งอยู่ใน	-14277
นักมวยปล้ําอาชีพ	-14278
ika	-14279
ชีน	-14280
ฟลู	-14281
ภู่	-14282
ินท	-14283
ayer	-14284
▁พาน	-14285
เบื่อ	-14286
ไปอยู่	-14287
ไม่ชอบ	-14288
ร่องรอย	-14289
▁prince	-14290
พระวิหาร	-14291
▁ทะเลสาบ	-14292
▁นักกีฬา	-14293
คนสุดท้าย	-14294
รองประธาน	-14295
จะเรียกว่า	-14296
เป็นศิลปิน	-14297
โดยไม่ต้อง	-14298
เป็นผู้ช่วย	-14299
ตราสัญลักษณ์	-14300
ในปีเดียวกัน	-14301
ตูม	-14302
ดยุก	-14303
ภัณฑ	-14304
▁box	-14305
▁nan	-14306
ละออง	-14307
เมโทร	-14308
กระบัง	-14309
ฆ่าตาย	-14310
พยางค์	-14311
คุ้นเคย	-14312
ละติจูด	-14313
สัญกรรม	-14314
เมื่อมี	-14315
่อสร้าง	-14316
▁empire	-14317
ก็ไม่ได้	-14318
ซุปเปอร์	-14319
มั่งคั่ง	-14320
▁ชั้นมหา	-14321
▁เป็นวัด	-14322
ฟุตบอลลีก	-14323
และจังหวัด	-14324
▁ในส่วนของ	-14325
▁ทีมสุดท้าย	-14326
ซง	-14327
lam	-14328
gold	-14329
idth	-14330
ป๊อป	-14331
ี้ยม	-14332
แฟร์	-14333
▁ปิด	-14334
class	-14335
ัสรู้	-14336
เงือก	-14337
▁เก็บ	-14338
ทันหัน	-14339
พยัคฆ์	-14340
▁เรียว	-14341
▁social	-14342
เรขาคณิต	-14343
▁ร้องนํา	-14344
ข้อกําหนด	-14345
▁วินโดวส์	-14346
ปฏิสัมพันธ์	-14347
face	-14348
ยามา	-14349
หลิว	-14350
▁กีฬ	-14351
▁พัก	-14352
light	-14353
▁ปทุม	-14354
่ํารวย	-14355
▁สงขลา	-14356
เป็นไม้	-14357
▁ไทยลีก	-14358
ปัญหาการ	-14359
จงรักภักดี	-14360
สมุทรสงคราม	-14361
▁และนักแสดง	-14362
กล้องโทรทรรศน์	-14363
เจริญรุ่งเรือง	-14364
▁ประเทศอินเดีย	-14365
สาธิตมหาวิทยาลัย	-14366
เมดิเตอร์เรเนียน	-14367
ugu	-14368
โคะ	-14369
-00)	-14370
pect	-14371
ารัก	-14372
▁wba	-14373
ของเซ	-14374
ซาเบล	-14375
▁were	-14376
พระบาง	-14377
มองว่า	-14378
▁โจเซฟ	-14379
ศาลฎีกา	-14380
ไดออกไซด์	-14381
strumental	-14382
มาตั้งแต่สมัย	-14383
เพื่อการศึกษา	-14384
มาจนถึงปัจจุบัน	-14385
bat	-14386
oth	-14387
เกอ	-14388
phal	-14389
▁ฟอง	-14390
เตียว	-14391
เถลิง	-14392
itable	-14393
▁polit	-14394
▁สีขาว	-14395
สุมาตรา	-14396
เห็นด้วย	-14397
สวัสดิการ	-14398
▁และเมือง	-14399
ต่อชั่วโมง	-14400
พระราชมารดา	-14401
ราชาคณะชั้น	-14402
ito	-14403
พร้า	-14404
▁arm	-14405
▁mak	-14406
กรณีย	-14407
พังก์	-14408
▁anal	-14409
▁drop	-14410
▁วิ่ง	-14411
ตอบโต้	-14412
หุบเขา	-14413
ใช้นาม	-14414
▁อากาศ	-14415
เป็นคู่	-14416
และระบบ	-14417
ได้ย้าย	-14418
▁รองจาก	-14419
แท่นบูชา	-14420
▁และเปิด	-14421
ถ่ายทําใน	-14422
ของเยอรมนี	-14423
เครื่องแบบ	-14424
▁เจ้าพระยา	-14425
▁แฟนเทเชีย	-14426
ผ่านเข้ารอบ	-14427
อย่างจริงจัง	-14428
ตามปฏิทินจูเลียน	-14429
ten	-14430
ชญา	-14431
รีส	-14432
fore	-14433
คอล์	-14434
บุ๊ค	-14435
ปัญญ	-14436
เกือ	-14437
ตัวลง	-14438
▁hero	-14439
ของปลา	-14440
ดราม่า	-14441
▁media	-14442
▁ผู้มี	-14443
กระเป๋า	-14444
เดินแบบ	-14445
▁comput	-14446
ตกอยู่ใน	-14447
เฮนรีที่	-14448
▁คัมภีร์	-14449
ส่งข้อมูล	-14450
เคร่งครัด	-14451
▁ที่ทําให้	-14452
ความหมายของ	-14453
ระดับนานาชาติ	-14454
เสด	-14455
พราง	-14456
พัชร	-14457
สารี	-14458
ากัส	-14459
เปลว	-14460
▁หอย	-14461
กันที่	-14462
ตัวเขา	-14463
ต้นทุน	-14464
รูปของ	-14465
เผยแผ่	-14466
▁april	-14467
▁water	-14468
การกุศล	-14469
เอนเอียง	-14470
▁singles	-14471
เฉียบพลัน	-14472
หนึ่งเดียว	-14473
▁languages	-14474
▁จุลศักราช	-14475
เลฟ	-14476
ไคล	-14477
▁เพศ	-14478
สมชาย	-14479
▁เฉิน	-14480
ก่อตัว	-14481
น้อยลง	-14482
เฮฟวี่	-14483
▁dragon	-14484
▁legend	-14485
สมาชิกวง	-14486
▁พนักงาน	-14487
▁วัดหนอง	-14488
นับตั้งแต่	-14489
▁สุริยุปราคา	-14490
▁ในภาษาอังกฤษ	-14491
vi	-14492
เนอ	-14493
โถง	-14494
โม่	-14495
▁ng	-14496
pend	-14497
ถนอม	-14498
ทอร์	-14499
วาจา	-14500
▁hal	-14501
ชิโนะ	-14502
ดามัน	-14503
เมียน	-14504
้อยละ	-14505
▁dark	-14506
▁ศรัณ	-14507
▁แม็ค	-14508
ลดความ	-14509
ชาวสเปน	-14510
ที่เก็บ	-14511
อ้างถึง	-14512
▁thomas	-14513
มุ่งเน้น	-14514
และมีการ	-14515
ชั้นมัธยม	-14516
บัณฑิตพัฒน	-14517
สซาชูเซตส์	-14518
แม้กระทั่ง	-14519
เพียงไม่กี่	-14520
▁เป็นเส้นทาง	-14521
▁จากการจัดอันดับ	-14522
ทัก	-14523
มากๆ	-14524
▁กาย	-14525
▁มัล	-14526
acter	-14527
ขอร้อง	-14528
▁0.0-0	-14529
▁prote	-14530
ที่เข้า	-14531
▁modern	-14532
งานศิลปะ	-14533
จะอยู่ใน	-14534
▁หลักฐาน	-14535
ในร่างกาย	-14536
▁ในรูปแบบ	-14537
ให้เกิดการ	-14538
▁ในจังหวัด	-14539
ที่ค่อนข้าง	-14540
ลุ่มแม่น้ํา	-14541
ช่วยเหลือจาก	-14542
ทางคณิตศาสตร์	-14543
เรียบเรียงโดย	-14544
▁พิธีกรรายการ	-14545
▁เจ้าอาวาสวัด	-14546
▁ซึ่งได้รับการ	-14547
ml	-14548
omic	-14549
ทลาย	-14550
trans	-14551
ปรากร	-14552
▁type	-14553
ซามูไร	-14554
บทละคร	-14555
▁asian	-14556
▁เปล่ง	-14557
จะสร้าง	-14558
ศรีราชา	-14559
แบบอื่น	-14560
▁โดยเขา	-14561
ที่มาของ	-14562
ทําเนียบ	-14563
▁central	-14564
เป็นอันมาก	-14565
อย่างแท้จริง	-14566
ในเดือนมกราคม	-14567
นนก	-14568
ตั๋ว	-14569
▁ผสม	-14570
▁โซน	-14571
และใน	-14572
▁educ	-14573
▁tran	-14574
ครูสอน	-14575
เรือรบ	-14576
▁paris	-14577
▁ซิตี้	-14578
▁เชอร์	-14579
ที่เน้น	-14580
หลักคือ	-14581
อีกชื่อ	-14582
พิเศษของ	-14583
▁ขณะนั้น	-14584
ของจํานวน	-14585
ลอบสังหาร	-14586
▁สนับสนุน	-14587
ที่ซับซ้อน	-14588
สําหรับเด็ก	-14589
▁ละครเรื่อง	-14590
ได้รับอิทธิพลจาก	-14591
▁แต่อย่างไรก็ตาม	-14592
ru	-14593
pal	-14594
รกร	-14595
▁กบ	-14596
▁ไทร	-14597
house	-14598
ซิสต์	-14599
พญาไท	-14600
ฟาร์ม	-14601
เชลซี	-14602
นักสู้	-14603
้ํามัน	-14604
▁การ์ด	-14605
บริษัทร	-14606
ปริมาตร	-14607
ัมเปอร์	-14608
เรียนจบ	-14609
▁double	-14610
▁theory	-14611
▁ไทยแลนด์	-14612
ที่สูงกว่า	-14613
เมื่อครั้ง	-14614
แสดงภาพยนตร์	-14615
ออกจากตําแหน่ง	-14616
ในสมเด็จพระเจ้า	-14617
▁รัฐแคลิฟอร์เนีย	-14618
oon	-14619
rey	-14620
ทบท	-14621
ูร์	-14622
แต้	-14623
หน่อ	-14624
azine	-14625
▁rain	-14626
ฉะนั้น	-14627
ว่าเธอ	-14628
เลเซอร์	-14629
▁combin	-14630
▁กําแพง	-14631
▁เขตบาง	-14632
ของทุกปี	-14633
เขียนโดย	-14634
และกลุ่ม	-14635
▁business	-14636
แบบดั้งเดิม	-14637
ในเดือนตุลาคม	-14638
เกจ	-14639
เมธ	-14640
โพง	-14641
ปีละ	-14642
ป้อน	-14643
อล์ก	-14644
เขาย	-14645
แจ๊ส	-14646
ให้คน	-14647
▁โพธิ์	-14648
ราบลุ่ม	-14649
เกมโชว์	-14650
▁*00.00	-14651
คุณาภรณ์	-14652
นโปเลียน	-14653
▁service	-14654
ที่ทําจาก	-14655
ที่รุนแรง	-14656
นักมวยไทย	-14657
คริสต์ศาสนา	-14658
▁ซึ่งถือเป็น	-14659
ซากดึกดําบรรพ์	-14660
ห้างสรรพสินค้า	-14661
เฟต	-14662
ices	-14663
ครอส	-14664
พลัส	-14665
มุนี	-14666
อุทธ	-14667
▁pot	-14668
▁โรส	-14669
▁ไตร	-14670
ในคณะ	-14671
อมเบีย	-14672
▁death	-14673
ก่อนการ	-14674
▁ลําพูน	-14675
นักวิจัย	-14676
▁สตูดิโอ	-14677
ดุริยางค์	-14678
ผู้ก่อตั้ง	-14679
ไมโครซอฟท์	-14680
international	-14681
ของสมเด็จพระเจ้า	-14682
pon	-14683
ุนี	-14684
▁ตน	-14685
▁inv	-14686
กอทิก	-14687
จิเนีย	-14688
ชีวิตร	-14689
เอกภาพ	-14690
▁river	-14691
ดิวิชั่น	-14692
การควบคุม	-14693
แชมเปี้ยน	-14694
▁ได้เริ่ม	-14695
▁กองกําลัง	-14696
▁ภายหลังจาก	-14697
▁ประธานกรรมการ	-14698
ลาร์	-14699
สีห์	-14700
▁nar	-14701
▁๒๕๕	-14702
ในสมอง	-14703
ตรายการ	-14704
นี้จะมี	-14705
มุขมณฑล	-14706
หลักที่	-14707
▁แคนาดา	-14708
จบฤดูกาล	-14709
มหาดเล็ก	-14710
แห่งเวลส์	-14711
แม่ฮ่องสอน	-14712
เวิร์คพอยท์	-14713
สิ่งก่อสร้างใน	-14714
den	-14715
อาก	-14716
อีส	-14717
เมม	-14718
ysis	-14719
บุ๊ก	-14720
เตีย	-14721
วัฒนะ	-14722
▁wars	-14723
▁ชมรม	-14724
▁เตชะ	-14725
เกิดใน	-14726
เลิศหล	-14727
คาดหวัง	-14728
ถวายพระ	-14729
▁golden	-14730
▁พระนาม	-14731
▁เขาถูก	-14732
▁เวอร์ชัน	-14733
ลาลัมเปอร์	-14734
▁โปรดิวเซอร์	-14735
ีล	-14736
▁!	-14737
คส์	-14738
ตรัม	-14739
แคโร	-14740
iforn	-14741
ทรงมี	-14742
สาหัส	-14743
ตะกั่ว	-14744
▁there	-14745
▁มาร์ก	-14746
ดิสนีย์	-14747
▁century	-14748
ต่อต้านการ	-14749
สาระการเรียนรู้	-14750
ds	-14751
kn	-14752
'';	-14753
sol	-14754
▁ทุ	-14755
ค้ํา	-14756
▁tor	-14757
▁ส้ม	-14758
สุเทพ	-14759
แต่มี	-14760
โพสต์	-14761
▁หวัง	-14762
ซึ่งจะ	-14763
ฐานของ	-14764
ตรังสี	-14765
น้ําตา	-14766
เลื่อม	-14767
▁นํามา	-14768
ถ่ายแบบ	-14769
หนึ่งปี	-14770
านาชาติ	-14771
▁รู้จัก	-14772
ที่อาศัย	-14773
สภาพอากาศ	-14774
▁แต่สุดท้าย	-14775
ชาดก	-14776
ไบต์	-14777
มดลูก	-14778
▁july	-14779
ทําตาม	-14780
นําเอา	-14781
ulation	-14782
สูงอายุ	-14783
อําเภอส	-14784
ิบเบียน	-14785
เสมอกัน	-14786
▁friend	-14787
▁austral	-14788
▁british	-14789
▁kingdom	-14790
▁คิดเป็น	-14791
▁อําเภอน	-14792
▁สนิทวงศ์	-14793
▁เป็นระบบ	-14794
สัญชาติไทย	-14795
▁september	-14796
รับตําแหน่ง	-14797
ผู้สําเร็จราชการ	-14798
ราด	-14799
iving	-14800
ลดการ	-14801
เจอส์	-14802
เซลีน	-14803
▁june	-14804
▁ฮิโร	-14805
ต่างก็	-14806
โตรเจน	-14807
▁โบสถ์	-14808
มหาธาตุ	-14809
แยกเป็น	-14810
▁วันหนึ่ง	-14811
▁ลําดับที่	-14812
ปฏิบัติธรรม	-14813
เป็นเวลานาน	-14814
▁และได้รับรางวัล	-14815
dis	-14816
ฮาล	-14817
พนัน	-14818
าวาส	-14819
▁akb	-14820
▁dyn	-14821
▁ลาย	-14822
▁อลิ	-14823
▁อัส	-14824
▁ไก่	-14825
งคราม	-14826
ได้พบ	-14827
ฝ่ามือ	-14828
แต่งตัว	-14829
ซิสเตอร์	-14830
ที่ยังคง	-14831
พหลโยธิน	-14832
อนุพันธ์	-14833
▁present	-14834
สิทธิบัตร	-14835
▁ที่มีการ	-14836
▁ปริญญาโท	-14837
มองเห็นได้	-14838
เกือบทั้งหมด	-14839
▁เป็นหัวหน้า	-14840
๊า	-14841
erv	-14842
กีด	-14843
▁fm	-14844
ould	-14845
▁พิจ	-14846
▁ภาร	-14847
ซิลเว	-14848
▁full	-14849
▁วอร์	-14850
ลูกโลก	-14851
ไทยแบบ	-14852
ลูกหลาน	-14853
ตําบลบาง	-14854
เร็วกว่า	-14855
▁โดยอาศัย	-14856
▁เป็นผลงาน	-14857
▁อําเภอหนอง	-14858
▁เป็นปีปกติ	-14859
▁ในเวลาต่อมา	-14860
▁การเลือกตั้ง	-14861
tic	-14862
มอล	-14863
แรด	-14864
มิลาน	-14865
▁ชื่น	-14866
▁ถ้ํา	-14867
กลาเทศ	-14868
มอบให้	-14869
ให้คํา	-14870
▁มีค่า	-14871
ไม่อยู่	-14872
▁เปรียบ	-14873
ลาดกระบัง	-14874
กลุ่มหนึ่ง	-14875
จุดมุ่งหมาย	-14876
มาจากคําว่า	-14877
็ส	-14878
▁в	-14879
/000	-14880
phen	-14881
ปทาน	-14882
โมริ	-14883
▁ten	-14884
ในลีก	-14885
ินันท์	-14886
▁นายพล	-14887
▁เสื้อ	-14888
▁เอกซ์	-14889
หน้าของ	-14890
▁number	-14891
มืออาชีพ	-14892
โตเต็มที่	-14893
ให้เห็นว่า	-14894
ถิ่นกําเนิด	-14895
ฤดูใบไม้ผลิ	-14896
▁โดยใช้ชื่อ	-14897
▁อยู่ห่างจาก	-14898
แห่งสาธารณรัฐ	-14899
มหาสมุทรอินเดีย	-14900
ทัช	-14901
ูระ	-14902
ains	-14903
ไปมา	-14904
▁jer	-14905
▁วัช	-14906
field	-14907
stein	-14908
▁dist	-14909
▁sant	-14910
▁ซีซี	-14911
▁ดาร์	-14912
ตกต่ํา	-14913
หาริย์	-14914
เพศผู้	-14915
สมรภูมิ	-14916
▁กับนาง	-14917
ในอินเดีย	-14918
ได้เข้ามา	-14919
▁แต่ไม่มี	-14920
ทําลายล้าง	-14921
บางครั้งก็	-14922
ทวีปแอฟริกา	-14923
ทางธรรมชาติ	-14924
▁ประเทศสเปน	-14925
ขด	-14926
อุก	-14927
▁lu	-14928
anna	-14929
ilis	-14930
ก้อง	-14931
ซอร์	-14932
เมจิ	-14933
▁ดัช	-14934
▁สวม	-14935
▁แซ่	-14936
ภาชนะ	-14937
มอนด์	-14938
▁ท็อป	-14939
งอยปาก	-14940
ที่พระ	-14941
รุ่นพี่	-14942
▁เดิมชื่อ	-14943
เป็นเครื่อง	-14944
▁ลิเวอร์พูล	-14945
▁เป็นหน่วยงาน	-14946
สถาบันการศึกษา	-14947
ped	-14948
เรศ	-14949
สดใส	-14950
ังกะ	-14951
แบล็ค	-14952
▁some	-14953
▁week	-14954
เวิร์ก	-14955
ตามชื่อ	-14956
ดอนเมือง	-14957
ธรรมราชา	-14958
สถานกงสุล	-14959
ซึ่งทําให้	-14960
bul	-14961
kin	-14962
ซัด	-14963
ปิตุ	-14964
เชลย	-14965
▁luc	-14966
▁กวี	-14967
ตกชั้น	-14968
ากล่าว	-14969
เดิมคือ	-14970
กรณียกิจ	-14971
▁จนถึงปี	-14972
มาโดยตลอด	-14973
เคมบริดจ์	-14974
▁สําเนียง	-14975
▁ในบริเวณ	-14976
พฤกษศาสตร์	-14977
▁การจัดการ	-14978
▁ข้าราชการ	-14979
มากยิ่งขึ้น	-14980
▁เมื่อมีการ	-14981
ในทวีปเอเชีย	-14982
เดือนกุมภาพันธ์	-14983
ón	-14984
ผิง	-14985
ลู่	-14986
สไป	-14987
aria	-14988
ichi	-14989
สตูล	-14990
สสาร	-14991
ิร์ท	-14992
เปรู	-14993
▁สุก	-14994
▁ไหล	-14995
onder	-14996
รรัตน	-14997
ารมณ์	-14998
▁มีขน	-14999
▁หลิว	-15000
action	-15001
จากพระ	-15002
ดราก้อน	-15003
เพศเมีย	-15004
สร้างวัด	-15005
▁000–000	-15006
รู้สึกว่า	-15007
น้อยที่สุด	-15008
กก	-15009
มุง	-15010
โพก	-15011
ใหล	-15012
▁az	-15013
▁fa	-15014
ound	-15015
เน่า	-15016
▁เฟร	-15017
ordon	-15018
ดรูว์	-15019
พิพิธ	-15020
ริงส์	-15021
▁ห้าง	-15022
กรีนิช	-15023
แรกเกิด	-15024
ได้เห็น	-15025
▁มีเพลง	-15026
แรกเริ่ม	-15027
แอฟริกัน	-15028
ตําบลบ้าน	-15029
ทํานองโดย	-15030
รู้จักกับ	-15031
▁0000-00,	-15032
เดียวกันนี้	-15033
▁พระพุทธรูป	-15034
ความหวังใหม่	-15035
สองคนสุดท้าย	-15036
เกิดขึ้นเมื่อ	-15037
บาว	-15038
มาม	-15039
ming	-15040
อริย	-15041
unter	-15042
เฮล์ม	-15043
โอเพน	-15044
▁ถั่ว	-15045
เบสบอล	-15046
ไม่น่า	-15047
▁tokyo	-15048
อาจจะมี	-15049
เป็นคํา	-15050
▁intern	-15051
▁ทรัพย์	-15052
อาร์กติก	-15053
ฮิตเลอร์	-15054
ที่ชัดเจน	-15055
ปรมาภิไธย	-15056
พี่นางเธอ	-15057
เนื้อเพลง	-15058
เลิศหล้าน	-15059
เล่าเรียน	-15060
ยกฐานะเป็น	-15061
ด้วยความเร็ว	-15062
แมสซาชูเซตส์	-15063
mr	-15064
ips	-15065
ปณ์	-15066
คือน	-15067
ปลีก	-15068
ราศี	-15069
เอมิ	-15070
ชาวนา	-15071
เรียส	-15072
จําเลย	-15073
▁smith	-15074
▁สุพรรณ	-15075
▁ในด้าน	-15076
มุ่งมั่น	-15077
ยืดหยุ่น	-15078
▁นวนิยาย	-15079
มีความสุข	-15080
ตํารวจภูธร	-15081
▁ซึ่งมีการ	-15082
▁ปริญญาตรี	-15083
▁publishing	-15084
▁กรุงลอนดอน	-15085
▁ซึ่งอยู่ใน	-15086
พิธีกรรายการ	-15087
สื่อสารมวลชน	-15088
เดือนธันวาคม	-15089
nes	-15090
สมิ	-15091
▁ฝน	-15092
เมย์	-15093
แข้ง	-15094
▁cro	-15095
▁tex	-15096
▁พิช	-15097
stand	-15098
โกแลต	-15099
▁อ่าน	-15100
กระดอง	-15101
จุดยอด	-15102
โดยปกติ	-15103
กลุ่มของ	-15104
บริบูรณ์	-15105
อุตุนิยม	-15106
▁อเมริกา	-15107
ปกครองโดย	-15108
▁สีเหลือง	-15109
▁ฮิตเลอร์	-15110
เลยทีเดียว	-15111
▁เนื้อเรื่อง	-15112
▁ได้รับเลือก	-15113
isa	-15114
โคว	-15115
โรด	-15116
่าม	-15117
ille	-15118
weet	-15119
สมาน	-15120
สาบาน	-15121
พนมเปญ	-15122
ออกนอก	-15123
▁00-000	-15124
▁ในกรุง	-15125
เฉพาะกิจ	-15126
กลับไปยัง	-15127
ชาวต่างชาติ	-15128
รัฐวิสาหกิจ	-15129
ในประเทศอินเดีย	-15130
ปช	-15131
ฟอก	-15132
อ้อ	-15133
ized	-15134
ครับ	-15135
นาวา	-15136
ลีกา	-15137
โบว์	-15138
▁แกน	-15139
▁แรก	-15140
▁call	-15141
ถึงกับ	-15142
ียงไกร	-15143
▁ในปีค	-15144
ริชาร์ด	-15145
▁ลอนดอน	-15146
กวางตุ้ง	-15147
ต้องห้าม	-15148
สภาพเป็น	-15149
▁ล้านชุด	-15150
ออกได้เป็น	-15151
▁ซึ่งก็คือ	-15152
▁ที่ปรึกษา	-15153
ของกษัตริย์	-15154
▁ที่โรงเรียน	-15155
อยู่ในปัจจุบัน	-15156
gal	-15157
กรร	-15158
ทท์	-15159
มโน	-15160
ยมน	-15161
ารุส	-15162
โรว์	-15163
▁cry	-15164
ตาลิน	-15165
บรรจง	-15166
พาตัว	-15167
▁trav	-15168
▁ฝั่ง	-15169
▁พุ่ม	-15170
▁เป้า	-15171
ตนเป็น	-15172
สารภาพ	-15173
ไพเราะ	-15174
ตร้าแมน	-15175
ระยะไกล	-15176
▁กระจาย	-15177
▁อํานวย	-15178
อันดามัน	-15179
มหาอํานาจ	-15180
เตรียมการ	-15181
▁เพื่อใช้	-15182
▁หมายความว่า	-15183
เลิศหล้านภาลัย	-15184
▁โรงเรียนเทศบาล	-15185
rit	-15186
win	-15187
โยก	-15188
▁il	-15189
bell	-15190
nail	-15191
sing	-15192
กลํา	-15193
▁non	-15194
▁pac	-15195
หย่อน	-15196
▁epis	-15197
▁mary	-15198
▁site	-15199
ลูกเรือ	-15200
สาหร่าย	-15201
อุทธรณ์	-15202
▁ตามที่	-15203
▁และระบบ	-15204
▁ไม่มีการ	-15205
ให้กําเนิด	-15206
เดือนมกราคม	-15207
▁มัธยมศึกษา	-15208
▁แต่ภายหลัง	-15209
raz	-15210
คนี	-15211
จีบ	-15212
▁gn	-15213
ผนวช	-15214
เต๋า	-15215
▁ปาล	-15216
▁เผย	-15217
mance	-15218
วรสาร	-15219
▁real	-15220
ทะเลาะ	-15221
ท่าทาง	-15222
น้ําใน	-15223
ปกรณัม	-15224
วาดอร์	-15225
▁review	-15226
ฝ่ายค้าน	-15227
สันนิบาต	-15228
เทนเมนท์	-15229
เป็นต้นมา	-15230
▁ที่มีความ	-15231
ถูกเรียกว่า	-15232
เป็นมรดกโลก	-15233
เสียชีวิตลง	-15234
▁แต่หลังจาก	-15235
พระราชวังบวร	-15236
key	-15237
sil	-15238
ฉิน	-15239
โบะ	-15240
ogle	-15241
ริ่ง	-15242
าบาว	-15243
าลํา	-15244
ไตย์	-15245
▁บุช	-15246
▁เมฆ	-15247
▁*00.	-15248
▁bank	-15249
▁hill	-15250
(0000)	-15251
ตัวย่อ	-15252
▁เอื้อ	-15253
มีเพียง	-15254
▁martin	-15255
กลุ่มนี้	-15256
ภาษาบาลี	-15257
เรื่องแรก	-15258
นอลแฟนตาซี	-15259
แทนที่ด้วย	-15260
ข้อเท็จจริง	-15261
รุม	-15262
▁แย	-15263
มิ่ง	-15264
ศรัย	-15265
▁fut	-15266
▁หมอ	-15267
▁sand	-15268
▁ขยาย	-15269
เจอร์ส	-15270
▁สุภาพ	-15271
เพลย์ออฟ	-15272
ทํางานของ	-15273
อุดมการณ์	-15274
ตอนเหนือของ	-15275
วันพฤหัสบดี	-15276
▁เป็นบริษัท	-15277
พริ	-15278
รกต	-15279
แมช	-15280
ปุ๋ย	-15281
อดทน	-15282
▁ชาญ	-15283
ชกมวย	-15284
สีของ	-15285
▁pass	-15286
มีทั้ง	-15287
เขาสูง	-15288
▁blood	-15289
▁study	-15290
แก้แค้น	-15291
▁ฮ่องกง	-15292
▁น้ําตาล	-15293
ตลอดชีวิต	-15294
โครเอเชีย	-15295
▁ลักษณะของ	-15296
เซิร์ฟเวอร์	-15297
ดาวเคราะห์น้อย	-15298
▁โดยใช้ชื่อว่า	-15299
กู่	-15300
ออด	-15301
เหอ	-15302
▁ba	-15303
imes	-15304
โพ้น	-15305
iddle	-15306
จนหมด	-15307
พินิจ	-15308
ลําภู	-15309
เด็กๆ	-15310
▁shin	-15311
▁หลี่	-15312
▁title	-15313
ผิวน้ํา	-15314
ไต้ฝุ่น	-15315
▁กรมขุน	-15316
ต่อเมื่อ	-15317
ทับศัพท์	-15318
จัดการกับ	-15319
ตอบคําถาม	-15320
บุคลิกภาพ	-15321
ไปทั่วโลก	-15322
ปิโตรเลียม	-15323
ภาษาศาสตร์	-15324
ได้อีกด้วย	-15325
ไม่ได้เป็น	-15326
▁การประชุม	-15327
▁เรียบเรียง	-15328
พระบรมวงศานุวงศ์	-15329
roph	-15330
หงสา	-15331
▁คดี	-15332
ดวงใจ	-15333
สมโภช	-15334
เกียง	-15335
▁post	-15336
รองจาก	-15337
▁front	-15338
▁psych	-15339
ของทั้ง	-15340
เสกสมรส	-15341
▁govern	-15342
▁summer	-15343
▁พ่อของ	-15344
▁สิ่งที่	-15345
▁และจังหวัด	-15346
ธม	-15347
obe	-15348
บทร	-15349
รรพ	-15350
ซี้ด	-15351
สองปี	-15352
ให้มา	-15353
▁chap	-15354
▁ข้าม	-15355
บ่งชี้	-15356
เลี่ยม	-15357
แข่งรถ	-15358
ได้และ	-15359
คาราบาว	-15360
เข้มงวด	-15361
▁knight	-15362
▁ของการ	-15363
▁จัดโดย	-15364
แต่นั้นมา	-15365
ของกระทรวง	-15366
ประสูติแต่	-15367
เสกสมรสกับ	-15368
▁เหรียญเงิน	-15369
แสดงให้เห็นว่า	-15370
ст	-15371
ปง	-15372
ดิศ	-15373
นุ่ม	-15374
ไตน์	-15375
▁มุก	-15376
▁โดน	-15377
จะนํา	-15378
โอะกะ	-15379
ประพาส	-15380
มหายาน	-15381
ยี่ห้อ	-15382
▁chart	-15383
▁field	-15384
▁จนได้	-15385
กาลเวลา	-15386
ถ่านหิน	-15387
ร้านขาย	-15388
▁street	-15389
▁แม้แต่	-15390
เก็บภาษี	-15391
▁ตามด้วย	-15392
ทางชีวภาพ	-15393
ใช้อํานาจ	-15394
อยู่บริเวณ	-15395
อยู่ภายใต้การ	-15396
งํา	-15397
ดูล	-15398
้วม	-15399
ania	-15400
ธิเบ	-15401
นิวก	-15402
แตร์	-15403
▁ลอง	-15404
▁วรร	-15405
คลั่ง	-15406
▁frank	-15407
กลางวัน	-15408
มีปัญหา	-15409
ราชเทวี	-15410
อุทกภัย	-15411
แล้วจึง	-15412
▁พยายาม	-15413
เข้าเป็น	-15414
▁สปีชีส์	-15415
ชาติพัฒนา	-15416
เภสัชกรรม	-15417
▁november	-15418
แห่งเอเชีย	-15419
▁เครือข่าย	-15420
▁เมื่อเวลา	-15421
ส่งเสริมการ	-15422
องค์ความรู้	-15423
▁อยู่ในวงศ์	-15424
ตะวันออกกลาง	-15425
▁และโรงเรียน	-15426
tit	-15427
ฟิช	-15428
▁ฮู	-15429
▁00-	-15430
เปล่ง	-15431
แบล็ก	-15432
▁budd	-15433
ชัยนาท	-15434
▁หิรัญ	-15435
เกิดเหตุ	-15436
▁ผู้ป่วย	-15437
คะแนนเสียง	-15438
ตอบสนองต่อ	-15439
ที่ต่างกัน	-15440
ชนพื้นเมือง	-15441
ของสิ่งมีชีวิต	-15442
'':	-15443
cha	-15444
gif	-15445
san	-15446
▁หา	-15447
ุมาน	-15448
เค้ก	-15449
โขนง	-15450
โดเมน	-15451
▁ย่าน	-15452
▁เมกะ	-15453
master	-15454
จากทาง	-15455
เธอร์ส	-15456
แบบใหม่	-15457
▁ในเพลง	-15458
กลุ่มผู้	-15459
หม่อมหลวง	-15460
เป็นอาวุธ	-15461
▁000-000.	-15462
นักวิจารณ์	-15463
ใหญ่ที่สุด	-15464
▁สามารถใช้	-15465
ผู้ทรงคุณวุฒิ	-15466
▁ปัจจุบันเป็น	-15467
ฉีก	-15468
สัณ	-15469
โผล	-15470
▁#0	-15471
-00.	-15472
ฮาระ	-15473
▁les	-15474
▁ทิม	-15475
▁มอบ	-15476
▁ฮิว	-15477
color	-15478
ประสม	-15479
พระสุ	-15480
เทนโด	-15481
▁gall	-15482
▁ธาตุ	-15483
กับถนน	-15484
ของพ่อ	-15485
ตอนนี้	-15486
าวัจโจ	-15487
ค้างคาว	-15488
ร่ํารวย	-15489
ลูกเสือ	-15490
เพื่อไป	-15491
▁ทักษิณ	-15492
ลําเลียง	-15493
ลงทะเบียน	-15494
▁คอมพิวเตอร์	-15495
ให้ความช่วยเหลือ	-15496
ธนะ	-15497
ฮาม	-15498
▁rh	-15499
ians	-15500
ชิ่ง	-15501
▁kat	-15502
เอาต์	-15503
▁libr	-15504
▁paba	-15505
ตัวและ	-15506
▁เจอร์	-15507
▁เหมาะ	-15508
[...]
